{
  "version": "1.0",
  "truncation": null,
  "padding": null,
  "added_tokens": [
    {
      "id": 0,
      "content": "[PAD]",
      "single_word": false,
      "lstrip": false,
      "rstrip": false,
      "normalized": false,
      "special": true
    },
    {
      "id": 1,
      "content": "[UNK]",
      "single_word": false,
      "lstrip": false,
      "rstrip": false,
      "normalized": false,
      "special": true
    },
    {
      "id": 2,
      "content": "[CLS]",
      "single_word": false,
      "lstrip": false,
      "rstrip": false,
      "normalized": false,
      "special": true
    },
    {
      "id": 3,
      "content": "[SEP]",
      "single_word": false,
      "lstrip": false,
      "rstrip": false,
      "normalized": false,
      "special": true
    },
    {
      "id": 4,
      "content": "[MASK]",
      "single_word": false,
      "lstrip": false,
      "rstrip": false,
      "normalized": false,
      "special": true
    }
  ],
  "normalizer": null,
  "pre_tokenizer": {
    "type": "Whitespace"
  },
  "post_processor": null,
  "decoder": null,
  "model": {
    "type": "BPE",
    "dropout": null,
    "unk_token": "[UNK]",
    "continuing_subword_prefix": null,
    "end_of_word_suffix": null,
    "fuse_unk": false,
    "byte_fallback": false,
    "ignore_merges": false,
    "vocab": {
      "[PAD]": 0,
      "[UNK]": 1,
      "[CLS]": 2,
      "[SEP]": 3,
      "[MASK]": 4,
      "!": 5,
      "\"": 6,
      "#": 7,
      "$": 8,
      "%": 9,
      "&": 10,
      "'": 11,
      "(": 12,
      ")": 13,
      "*": 14,
      "+": 15,
      ",": 16,
      "-": 17,
      ".": 18,
      "/": 19,
      "0": 20,
      "1": 21,
      "2": 22,
      "3": 23,
      "4": 24,
      "5": 25,
      "6": 26,
      "7": 27,
      "8": 28,
      "9": 29,
      ":": 30,
      ";": 31,
      "<": 32,
      "=": 33,
      ">": 34,
      "?": 35,
      "@": 36,
      "A": 37,
      "B": 38,
      "C": 39,
      "D": 40,
      "E": 41,
      "F": 42,
      "G": 43,
      "H": 44,
      "I": 45,
      "J": 46,
      "K": 47,
      "L": 48,
      "M": 49,
      "N": 50,
      "O": 51,
      "P": 52,
      "Q": 53,
      "R": 54,
      "S": 55,
      "T": 56,
      "U": 57,
      "V": 58,
      "W": 59,
      "X": 60,
      "Y": 61,
      "Z": 62,
      "[": 63,
      "]": 64,
      "_": 65,
      "`": 66,
      "a": 67,
      "b": 68,
      "c": 69,
      "d": 70,
      "e": 71,
      "f": 72,
      "g": 73,
      "h": 74,
      "i": 75,
      "j": 76,
      "k": 77,
      "l": 78,
      "m": 79,
      "n": 80,
      "o": 81,
      "p": 82,
      "q": 83,
      "r": 84,
      "s": 85,
      "t": 86,
      "u": 87,
      "v": 88,
      "w": 89,
      "x": 90,
      "y": 91,
      "z": 92,
      "}": 93,
      "~": 94,
      "": 95,
      "": 96,
      "": 97,
      "": 98,
      "": 99,
      "—": 100,
      "’": 101,
      "“": 102,
      "”": 103,
      "😍": 104,
      "😞": 105,
      "th": 106,
      "in": 107,
      "an": 108,
      "er": 109,
      "the": 110,
      "is": 111,
      "on": 112,
      "re": 113,
      "le": 114,
      "and": 115,
      "ar": 116,
      "or": 117,
      "at": 118,
      "it": 119,
      "ve": 120,
      "ou": 121,
      "as": 122,
      "to": 123,
      "ing": 124,
      "ed": 125,
      "en": 126,
      "al": 127,
      "st": 128,
      "ri": 129,
      "ha": 130,
      "om": 131,
      "ver": 132,
      "for": 133,
      "ow": 134,
      "el": 135,
      "of": 136,
      "car": 137,
      "ot": 138,
      "he": 139,
      "ic": 140,
      "es": 141,
      "wi": 142,
      "ly": 143,
      "be": 144,
      "ac": 145,
      "se": 146,
      "ge": 147,
      "ro": 148,
      "gh": 149,
      "00": 150,
      "ad": 151,
      "ti": 152,
      "with": 153,
      "bu": 154,
      "ab": 155,
      "ter": 156,
      "ch": 157,
      "li": 158,
      "have": 159,
      "mi": 160,
      "The": 161,
      "de": 162,
      "tr": 163,
      "my": 164,
      "this": 165,
      "dri": 166,
      "com": 167,
      "un": 168,
      "oo": 169,
      "ay": 170,
      "ke": 171,
      "wh": 172,
      "ll": 173,
      "les": 174,
      "me": 175,
      "that": 176,
      "ld": 177,
      "ne": 178,
      "si": 179,
      "mo": 180,
      "but": 181,
      "out": 182,
      "was": 183,
      "you": 184,
      "ght": 185,
      "all": 186,
      "so": 187,
      "ce": 188,
      "are": 189,
      "not": 190,
      "very": 191,
      "ther": 192,
      "ex": 193,
      "ur": 194,
      "fe": 195,
      "mp": 196,
      "had": 197,
      "one": 198,
      "con": 199,
      "lo": 200,
      "ck": 201,
      "sp": 202,
      "..": 203,
      "no": 204,
      "get": 205,
      "has": 206,
      "ent": 207,
      "ma": 208,
      "drive": 209,
      "ir": 210,
      "reat": 211,
      "sh": 212,
      "su": 213,
      "pl": 214,
      "It": 215,
      "Th": 216,
      "id": 217,
      "ble": 218,
      "own": 219,
      "miles": 220,
      "able": 221,
      "il": 222,
      "pro": 223,
      "do": 224,
      "per": 225,
      "ear": 226,
      "ould": 227,
      "qu": 228,
      "age": 229,
      "ack": 230,
      "great": 231,
      "ion": 232,
      "ine": 233,
      "we": 234,
      "up": 235,
      "am": 236,
      "like": 237,
      "ust": 238,
      "us": 239,
      "ving": 240,
      "way": 241,
      "fr": 242,
      "if": 243,
      "ity": 244,
      "tru": 245,
      "year": 246,
      "pe": 247,
      "now": 248,
      "ant": 249,
      "ally": 250,
      "ul": 251,
      "thing": 252,
      "oy": 253,
      "oun": 254,
      "ome": 255,
      "This": 256,
      "sm": 257,
      "res": 258,
      "000": 259,
      "hic": 260,
      "pp": 261,
      "ain": 262,
      "ts": 263,
      "ook": 264,
      "any": 265,
      "vehic": 266,
      "go": 267,
      "ind": 268,
      "ell": 269,
      "ig": 270,
      "truck": 271,
      "blem": 272,
      "ood": 273,
      "can": 274,
      "ast": 275,
      "problem": 276,
      "over": 277,
      "ought": 278,
      "ere": 279,
      "fort": 280,
      "seat": 281,
      "other": 282,
      "ut": 283,
      "ak": 284,
      "hi": 285,
      "about": 286,
      "new": 287,
      "eng": 288,
      "au": 289,
      "than": 290,
      "ower": 291,
      "vehicle": 292,
      "look": 293,
      "end": 294,
      "ct": 295,
      "em": 296,
      "driving": 297,
      "ice": 298,
      "sa": 299,
      "when": 300,
      "wor": 301,
      "only": 302,
      "ota": 303,
      "love": 304,
      "comfort": 305,
      "200": 306,
      "Toy": 307,
      "ill": 308,
      "ound": 309,
      "more": 310,
      "plac": 311,
      "from": 312,
      "been": 313,
      "good": 314,
      "op": 315,
      "just": 316,
      "mile": 317,
      "Toyota": 318,
      "gas": 319,
      "will": 320,
      "ance": 321,
      "power": 322,
      "et": 323,
      "ation": 324,
      "20": 325,
      "ior": 326,
      "back": 327,
      "ven": 328,
      "years": 329,
      "tion": 330,
      "inter": 331,
      "lu": 332,
      "ong": 333,
      "high": 334,
      "replac": 335,
      "ate": 336,
      "fter": 337,
      "road": 338,
      "deal": 339,
      "hand": 340,
      "der": 341,
      "bet": 342,
      "mileage": 343,
      "ty": 344,
      "ard": 345,
      "ough": 346,
      "ag": 347,
      "br": 348,
      "would": 349,
      "int": 350,
      "ever": 351,
      "sion": 352,
      "some": 353,
      "co": 354,
      "iss": 355,
      "engine": 356,
      "off": 357,
      "mu": 358,
      "bought": 359,
      "they": 360,
      "time": 361,
      "cel": 362,
      "well": 363,
      "our": 364,
      "still": 365,
      "most": 366,
      "every": 367,
      "comp": 368,
      "its": 369,
      "chas": 370,
      "te": 371,
      "ride": 372,
      "mpg": 373,
      "fun": 374,
      "ting": 375,
      "urchas": 376,
      "dealer": 377,
      "issan": 378,
      "got": 379,
      "too": 380,
      "better": 381,
      "comfortable": 382,
      "much": 383,
      "bo": 384,
      "chan": 385,
      "fo": 386,
      "need": 387,
      "ely": 388,
      "irst": 389,
      "air": 390,
      "ass": 391,
      "side": 392,
      "Nissan": 393,
      "des": 394,
      "tle": 395,
      "201": 396,
      "ous": 397,
      "purchas": 398,
      "day": 399,
      "lit": 400,
      "after": 401,
      "buy": 402,
      "work": 403,
      "form": 404,
      "ich": 405,
      "mon": 406,
      "ick": 407,
      "fu": 408,
      "ling": 409,
      "art": 410,
      "...": 411,
      "owned": 412,
      "tran": 413,
      "BM": 414,
      "len": 415,
      "BMW": 416,
      "interior": 417,
      "reli": 418,
      "ap": 419,
      "light": 420,
      "by": 421,
      "vi": 422,
      "feel": 423,
      "problems": 424,
      "there": 425,
      "ep": 426,
      ").": 427,
      "av": 428,
      "which": 429,
      "does": 430,
      "We": 431,
      "did": 432,
      "spe": 433,
      "po": 434,
      "sy": 435,
      "tri": 436,
      "even": 437,
      "ers": 438,
      "ise": 439,
      "!!": 440,
      "down": 441,
      "first": 442,
      "My": 443,
      "old": 444,
      "issu": 445,
      "act": 446,
      "tires": 447,
      "far": 448,
      "lot": 449,
      "ment": 450,
      "ful": 451,
      "seats": 452,
      "pri": 453,
      "cr": 454,
      "ive": 455,
      "ue": 456,
      "rep": 457,
      "less": 458,
      "ile": 459,
      "long": 460,
      "ission": 461,
      "stem": 462,
      "cau": 463,
      "little": 464,
      "pre": 465,
      "tw": 466,
      "ort": 467,
      "don": 468,
      "never": 469,
      "perform": 470,
      "smission": 471,
      "ake": 472,
      "want": 473,
      "ality": 474,
      "system": 475,
      "run": 476,
      "ade": 477,
      "cont": 478,
      "cause": 479,
      "best": 480,
      "could": 481,
      "what": 482,
      "month": 483,
      "del": 484,
      "ip": 485,
      "ser": 486,
      "che": 487,
      "eas": 488,
      "rear": 489,
      "used": 490,
      "ry": 491,
      "ility": 492,
      "In": 493,
      "tur": 494,
      "room": 495,
      "dis": 496,
      "smoo": 497,
      "highway": 498,
      "whe": 499,
      "cars": 500,
      "man": 501,
      "ure": 502,
      "really": 503,
      "top": 504,
      "also": 505,
      "ste": 506,
      "transmission": 507,
      "ign": 508,
      "war": 509,
      "because": 510,
      "wheel": 511,
      "50": 512,
      "Al": 513,
      "how": 514,
      "fa": 515,
      "fi": 516,
      "oil": 517,
      "ors": 518,
      "quality": 519,
      "SU": 520,
      "fuel": 521,
      "val": 522,
      "ree": 523,
      "di": 524,
      "rec": 525,
      "replaced": 526,
      "turn": 527,
      "30": 528,
      "app": 529,
      "low": 530,
      "tim": 531,
      "looks": 532,
      "smooth": 533,
      "ien": 534,
      "lat": 535,
      "ink": 536,
      "SUV": 537,
      "imp": 538,
      "rad": 539,
      "ince": 540,
      "celer": 541,
      "ering": 542,
      "tra": 543,
      "model": 544,
      "your": 545,
      "ew": 546,
      "were": 547,
      "happ": 548,
      "um": 549,
      "use": 550,
      "speed": 551,
      "aw": 552,
      "qui": 553,
      "reliable": 554,
      "say": 555,
      "under": 556,
      "comm": 557,
      "trip": 558,
      "MP": 559,
      "put": 560,
      "ont": 561,
      "rove": 562,
      "find": 563,
      "leas": 564,
      "around": 565,
      "maint": 566,
      "wind": 567,
      "cond": 568,
      "lent": 569,
      "mat": 570,
      "driver": 571,
      "ship": 572,
      "design": 573,
      "pr": 574,
      "ra": 575,
      "getting": 576,
      "going": 577,
      "10": 578,
      "sed": 579,
      "since": 580,
      "another": 581,
      "acceler": 582,
      "pu": 583,
      "pass": 584,
      "performance": 585,
      "If": 586,
      "bel": 587,
      "purchased": 588,
      "fin": 589,
      "ition": 590,
      "rid": 591,
      "No": 592,
      "Wh": 593,
      "big": 594,
      "led": 595,
      "stand": 596,
      "spor": 597,
      "iff": 598,
      "akes": 599,
      "ek": 600,
      "tow": 601,
      "fore": 602,
      "two": 603,
      "nice": 604,
      "ability": 605,
      "cellent": 606,
      "repair": 607,
      "months": 608,
      "head": 609,
      "rol": 610,
      "expe": 611,
      "handling": 612,
      "think": 613,
      "ess": 614,
      "sive": 615,
      "ish": 616,
      "sound": 617,
      "read": 618,
      "control": 619,
      "expect": 620,
      "many": 621,
      "noise": 622,
      "inc": 623,
      "right": 624,
      "MPG": 625,
      "last": 626,
      "rant": 627,
      "them": 628,
      "price": 629,
      "see": 630,
      "rat": 631,
      "ach": 632,
      "fect": 633,
      "steering": 634,
      "bad": 635,
      "hard": 636,
      "ist": 637,
      "looking": 638,
      "again": 639,
      "view": 640,
      "ca": 641,
      "da": 642,
      "im": 643,
      "week": 644,
      "fix": 645,
      "ff": 646,
      "know": 647,
      "ning": 648,
      "sty": 649,
      "auto": 650,
      "warrant": 651,
      "though": 652,
      "ways": 653,
      "snow": 654,
      "ite": 655,
      "ext": 656,
      "door": 657,
      "amry": 658,
      "front": 659,
      "issues": 660,
      "ze": 661,
      "start": 662,
      "few": 663,
      "feat": 664,
      "mak": 665,
      "warranty": 666,
      "LE": 667,
      "So": 668,
      "test": 669,
      "radi": 670,
      "19": 671,
      "cl": 672,
      "est": 673,
      "ru": 674,
      "replace": 675,
      "handles": 676,
      "cost": 677,
      "Ver": 678,
      "aver": 679,
      "lar": 680,
      "keep": 681,
      "excellent": 682,
      "times": 683,
      "went": 684,
      "into": 685,
      "reg": 686,
      "conom": 687,
      "should": 688,
      "chang": 689,
      "Camry": 690,
      "ave": 691,
      "enance": 692,
      "where": 693,
      "diff": 694,
      "ies": 695,
      "par": 696,
      "then": 697,
      "who": 698,
      "ople": 699,
      "ather": 700,
      "bl": 701,
      "city": 702,
      "econom": 703,
      "dec": 704,
      "gr": 705,
      "vice": 706,
      "maintenance": 707,
      "40": 708,
      "mer": 709,
      "ose": 710,
      "take": 711,
      "ank": 712,
      "red": 713,
      "always": 714,
      "ace": 715,
      "while": 716,
      "plain": 717,
      "pt": 718,
      "gets": 719,
      "For": 720,
      "quiet": 721,
      "ction": 722,
      "joy": 723,
      "nd": 724,
      "recomm": 725,
      "let": 726,
      "ens": 727,
      "ci": 728,
      "ft": 729,
      "ight": 730,
      "min": 731,
      "seem": 732,
      "make": 733,
      "small": 734,
      "recommend": 735,
      "made": 736,
      "ures": 737,
      "before": 738,
      "without": 739,
      "perfect": 740,
      "people": 741,
      "25": 742,
      "Great": 743,
      "ated": 744,
      "ash": 745,
      "terior": 746,
      "unk": 747,
      "issue": 748,
      "ced": 749,
      "rem": 750,
      "exper": 751,
      "elf": 752,
      "driven": 753,
      "everything": 754,
      "economy": 755,
      "ax": 756,
      "cor": 757,
      "til": 758,
      "astic": 759,
      "easy": 760,
      "happy": 761,
      "trips": 762,
      "mph": 763,
      "same": 764,
      "),": 765,
      "Over": 766,
      "sur": 767,
      "complain": 768,
      "manu": 769,
      "You": 770,
      "bit": 771,
      "cy": 772,
      "free": 773,
      "enough": 774,
      "sure": 775,
      "window": 776,
      "15": 777,
      "ical": 778,
      "add": 779,
      "ably": 780,
      "There": 781,
      "safe": 782,
      "experien": 783,
      "35": 784,
      "After": 785,
      "On": 786,
      "drove": 787,
      "ily": 788,
      "rong": 789,
      "won": 790,
      "review": 791,
      "almost": 792,
      "ently": 793,
      "brakes": 794,
      "pack": 795,
      "these": 796,
      "exp": 797,
      "dy": 798,
      "aded": 799,
      "size": 800,
      "shif": 801,
      "aking": 802,
      "passeng": 803,
      "But": 804,
      "clo": 805,
      "rough": 806,
      "set": 807,
      "ie": 808,
      "nt": 809,
      "pleas": 810,
      "purchase": 811,
      "acceleration": 812,
      "features": 813,
      "Very": 814,
      "VE": 815,
      "oll": 816,
      "oint": 817,
      "said": 818,
      "bas": 819,
      "ele": 820,
      "ove": 821,
      "esome": 822,
      "dealership": 823,
      "service": 824,
      "100": 825,
      "sit": 826,
      "second": 827,
      "try": 828,
      "exce": 829,
      "Cor": 830,
      "cur": 831,
      "fact": 832,
      "que": 833,
      "When": 834,
      "sports": 835,
      "ago": 836,
      "give": 837,
      "ran": 838,
      "wife": 839,
      "needed": 840,
      "reliability": 841,
      "Overall": 842,
      "cre": 843,
      "zing": 844,
      "na": 845,
      "ited": 846,
      "didn": 847,
      "ments": 848,
      "wanted": 849,
      "ger": 850,
      "row": 851,
      "yb": 852,
      "yet": 853,
      "inside": 854,
      "gear": 855,
      "mechan": 856,
      "....": 857,
      "option": 858,
      "value": 859,
      "differ": 860,
      "11": 861,
      "ama": 862,
      "ons": 863,
      "reas": 864,
      "lid": 865,
      "come": 866,
      "oney": 867,
      "things": 868,
      "lights": 869,
      "makes": 870,
      "ybrid": 871,
      "fast": 872,
      "their": 873,
      "enjoy": 874,
      "ket": 875,
      "drives": 876,
      "change": 877,
      "appoint": 878,
      "average": 879,
      "28": 880,
      "bat": 881,
      "ima": 882,
      "line": 883,
      "ner": 884,
      "pick": 885,
      "ension": 886,
      "Fr": 887,
      "Max": 888,
      "money": 889,
      "stop": 890,
      "etc": 891,
      "Also": 892,
      "awesome": 893,
      "olla": 894,
      "60": 895,
      "Just": 896,
      "Not": 897,
      "igh": 898,
      "sens": 899,
      "self": 900,
      "once": 901,
      "conver": 902,
      "spension": 903,
      "ount": 904,
      "feels": 905,
      "doesn": 906,
      "manual": 907,
      "WD": 908,
      "cover": 909,
      "due": 910,
      "gu": 911,
      "hel": 912,
      "kid": 913,
      "mar": 914,
      "having": 915,
      "till": 916,
      "lim": 917,
      "ared": 918,
      "nothing": 919,
      "ular": 920,
      "lenty": 921,
      "expen": 922,
      "ail": 923,
      "cab": 924,
      "nor": 925,
      "ten": 926,
      "van": 927,
      "tima": 928,
      "super": 929,
      "owner": 930,
      "took": 931,
      "poor": 932,
      "fami": 933,
      "sedan": 934,
      "17": 935,
      "Se": 936,
      "ber": 937,
      "done": 938,
      "hold": 939,
      "mal": 940,
      "may": 941,
      "tty": 942,
      "star": 943,
      "trunk": 944,
      "sider": 945,
      "radio": 946,
      "18": 947,
      "SE": 948,
      "ho": 949,
      "jor": 950,
      "mot": 951,
      "vis": 952,
      "thought": 953,
      "tire": 954,
      "cho": 955,
      "aint": 956,
      "anything": 957,
      "both": 958,
      "package": 959,
      "Dri": 960,
      "bro": 961,
      "cle": 962,
      "cou": 963,
      "nav": 964,
      "real": 965,
      "ator": 966,
      "vel": 967,
      "roof": 968,
      "until": 969,
      "major": 970,
      "worth": 971,
      "pretty": 972,
      "repairs": 973,
      "amazing": 974,
      "Pri": 975,
      "cal": 976,
      "od": 977,
      "pa": 978,
      "xt": 979,
      "ating": 980,
      "suspension": 981,
      "lux": 982,
      "full": 983,
      "Altima": 984,
      "passenger": 985,
      "expensive": 986,
      "family": 987,
      "ia": 988,
      "ny": 989,
      "sw": 990,
      "sto": 991,
      "sun": 992,
      "tank": 993,
      "ually": 994,
      "tery": 995,
      "und": 996,
      "cially": 997,
      "ped": 998,
      "past": 999,
      "dep": 1000,
      "solid": 1001,
      "consider": 1002,
      "space": 1003,
      "ided": 1004,
      "disappoint": 1005,
      "standard": 1006,
      "town": 1007,
      "ffic": 1008,
      "cyl": 1009,
      "16": 1010,
      "De": 1011,
      "How": 1012,
      "RA": 1013,
      "RE": 1014,
      "care": 1015,
      "cap": 1016,
      "ious": 1017,
      "ob": 1018,
      "atch": 1019,
      "oma": 1020,
      "bump": 1021,
      "comes": 1022,
      "sport": 1023,
      "overall": 1024,
      "vious": 1025,
      "matic": 1026,
      "pump": 1027,
      "inclu": 1028,
      "came": 1029,
      "199": 1030,
      "Corolla": 1031,
      "Bought": 1032,
      "CV": 1033,
      "V6": 1034,
      "ces": 1035,
      "ild": 1036,
      "ised": 1037,
      "ater": 1038,
      "being": 1039,
      "traded": 1040,
      "next": 1041,
      "pped": 1042,
      "body": 1043,
      "belie": 1044,
      "finit": 1045,
      "2000": 1046,
      "dash": 1047,
      "found": 1048,
      "hit": 1049,
      "leather": 1050,
      "acoma": 1051,
      "lue": 1052,
      "roads": 1053,
      "brand": 1054,
      "something": 1055,
      "regular": 1056,
      "Maxima": 1057,
      "away": 1058,
      "cer": 1059,
      "ding": 1060,
      "flat": 1061,
      "ved": 1062,
      "They": 1063,
      "sol": 1064,
      "ird": 1065,
      "shop": 1066,
      "cheap": 1067,
      "battery": 1068,
      "Re": 1069,
      "bs": 1070,
      "cas": 1071,
      "fit": 1072,
      "fri": 1073,
      "king": 1074,
      "those": 1075,
      "through": 1076,
      "stick": 1077,
      "lock": 1078,
      "play": 1079,
      "days": 1080,
      "ready": 1081,
      "class": 1082,
      "remely": 1083,
      "experience": 1084,
      "motor": 1085,
      "However": 1086,
      "Aval": 1087,
      "Have": 1088,
      "NO": 1089,
      "du": 1090,
      "her": 1091,
      "ier": 1092,
      "land": 1093,
      "vo": 1094,
      "ouble": 1095,
      "espe": 1096,
      "quick": 1097,
      "ween": 1098,
      "vehicles": 1099,
      "aks": 1100,
      "open": 1101,
      "between": 1102,
      "tech": 1103,
      "cru": 1104,
      "Ford": 1105,
      "especially": 1106,
      "12": 1107,
      "At": 1108,
      "All": 1109,
      "Wi": 1110,
      "fl": 1111,
      "ury": 1112,
      "igation": 1113,
      "brake": 1114,
      "runs": 1115,
      "recall": 1116,
      "impres": 1117,
      "automatic": 1118,
      "large": 1119,
      "except": 1120,
      "--": 1121,
      "As": 1122,
      "Car": 1123,
      "High": 1124,
      "Love": 1125,
      "Still": 1126,
      "gg": 1127,
      "pay": 1128,
      "tell": 1129,
      "mid": 1130,
      "uring": 1131,
      "function": 1132,
      "lots": 1133,
      "running": 1134,
      "weeks": 1135,
      "extremely": 1136,
      "surpr": 1137,
      "elect": 1138,
      "Avalon": 1139,
      "Now": 1140,
      "Tacoma": 1141,
      "bar": 1142,
      "sha": 1143,
      "tal": 1144,
      "else": 1145,
      "sever": 1146,
      "ros": 1147,
      "exterior": 1148,
      "sho": 1149,
      "short": 1150,
      "ement": 1151,
      "2004": 1152,
      "!!!": 1153,
      "style": 1154,
      "changes": 1155,
      "seems": 1156,
      "safety": 1157,
      "Prius": 1158,
      "CVT": 1159,
      "Had": 1160,
      "bed": 1161,
      "cus": 1162,
      "hour": 1163,
      "plenty": 1164,
      "paint": 1165,
      "onti": 1166,
      "arch": 1167,
      "toy": 1168,
      "2006": 1169,
      "cold": 1170,
      "needs": 1171,
      "check": 1172,
      "expected": 1173,
      "solut": 1174,
      "friend": 1175,
      "14": 1176,
      "Hon": 1177,
      "Lex": 1178,
      "Run": 1179,
      "lor": 1180,
      "sing": 1181,
      "rent": 1182,
      "leg": 1183,
      "ves": 1184,
      "rides": 1185,
      "ool": 1186,
      "loved": 1187,
      "powerful": 1188,
      "works": 1189,
      "believe": 1190,
      "Lexus": 1191,
      "70": 1192,
      "AC": 1193,
      "And": 1194,
      "hone": 1195,
      "pres": 1196,
      "sat": 1197,
      "inst": 1198,
      "ings": 1199,
      "plastic": 1200,
      "pers": 1201,
      "ult": 1202,
      "point": 1203,
      "recently": 1204,
      "condition": 1205,
      "navigation": 1206,
      "80": 1207,
      "bre": 1208,
      "fine": 1209,
      "hu": 1210,
      "ked": 1211,
      "part": 1212,
      "wish": 1213,
      "water": 1214,
      "inal": 1215,
      "level": 1216,
      "ory": 1217,
      "haul": 1218,
      "acc": 1219,
      "That": 1220,
      "quite": 1221,
      "pet": 1222,
      "ended": 1223,
      "2003": 1224,
      "however": 1225,
      "sporty": 1226,
      "ratt": 1227,
      "started": 1228,
      "different": 1229,
      "luxury": 1230,
      "With": 1231,
      "electri": 1232,
      "ontier": 1233,
      "500": 1234,
      "AN": 1235,
      "Other": 1236,
      "Sien": 1237,
      "bin": 1238,
      "bably": 1239,
      "lack": 1240,
      "ple": 1241,
      "scre": 1242,
      "wa": 1243,
      "least": 1244,
      "aris": 1245,
      "cargo": 1246,
      "gest": 1247,
      "tight": 1248,
      "mir": 1249,
      "coming": 1250,
      "key": 1251,
      "compared": 1252,
      "previous": 1253,
      "fixed": 1254,
      "close": 1255,
      "converti": 1256,
      "IN": 1257,
      "LO": 1258,
      "ame": 1259,
      "date": 1260,
      "rd": 1261,
      "wrong": 1262,
      "rest": 1263,
      "ics": 1264,
      "show": 1265,
      "such": 1266,
      "fully": 1267,
      "series": 1268,
      "designed": 1269,
      "decided": 1270,
      "reason": 1271,
      "normal": 1272,
      "depend": 1273,
      "13": 1274,
      "3rd": 1275,
      "Ex": 1276,
      "X5": 1277,
      "bility": 1278,
      "four": 1279,
      "gn": 1280,
      "hybrid": 1281,
      "ok": 1282,
      "rot": 1283,
      "search": 1284,
      "live": 1285,
      "combin": 1286,
      "why": 1287,
      "area": 1288,
      "ilt": 1289,
      "probably": 1290,
      "2010": 1291,
      "buying": 1292,
      "improve": 1293,
      "belt": 1294,
      "styling": 1295,
      "parts": 1296,
      "black": 1297,
      "reviews": 1298,
      "disappointed": 1299,
      "several": 1300,
      "Sienna": 1301,
      "24": 1302,
      "One": 1303,
      "ath": 1304,
      "home": 1305,
      "ide": 1306,
      "tor": 1307,
      "orig": 1308,
      "ence": 1309,
      "als": 1310,
      "absolut": 1311,
      "outside": 1312,
      "noy": 1313,
      "nois": 1314,
      "pping": 1315,
      "goes": 1316,
      "trucks": 1317,
      "easily": 1318,
      "later": 1319,
      "lease": 1320,
      "changed": 1321,
      "wonder": 1322,
      "Frontier": 1323,
      "finitely": 1324,
      "Honda": 1325,
      "TH": 1326,
      "gl": 1327,
      "gall": 1328,
      "winter": 1329,
      "ward": 1330,
      "left": 1331,
      "aler": 1332,
      "strong": 1333,
      "ically": 1334,
      "built": 1335,
      "doors": 1336,
      "antastic": 1337,
      "hill": 1338,
      "replacement": 1339,
      "foot": 1340,
      "2013": 1341,
      "finder": 1342,
      "controls": 1343,
      "shift": 1344,
      "choice": 1345,
      "wait": 1346,
      "mirr": 1347,
      "23": 1348,
      "Ac": 1349,
      "Au": 1350,
      "Com": 1351,
      "First": 1352,
      "Sp": 1353,
      "during": 1354,
      "ned": 1355,
      "num": 1356,
      "she": 1357,
      "three": 1358,
      "annoy": 1359,
      "told": 1360,
      "stu": 1361,
      "stere": 1362,
      "rible": 1363,
      "ots": 1364,
      "adjust": 1365,
      "char": 1366,
      "life": 1367,
      "trouble": 1368,
      "butt": 1369,
      "spon": 1370,
      "ident": 1371,
      "inder": 1372,
      "ute": 1373,
      "actually": 1374,
      "Only": 1375,
      "kids": 1376,
      "market": 1377,
      "Be": 1378,
      "Che": 1379,
      "IT": 1380,
      "af": 1381,
      "hor": 1382,
      "ibility": 1383,
      "mine": 1384,
      "ps": 1385,
      "sof": 1386,
      "isn": 1387,
      "respon": 1388,
      "log": 1389,
      "others": 1390,
      "2008": 1391,
      "ations": 1392,
      "tooth": 1393,
      "iled": 1394,
      "fail": 1395,
      "Runner": 1396,
      "convertible": 1397,
      "stereo": 1398,
      "Mo": 1399,
      "tain": 1400,
      "ates": 1401,
      "ative": 1402,
      "enter": 1403,
      "myself": 1404,
      "simp": 1405,
      "cks": 1406,
      "weather": 1407,
      "pos": 1408,
      "twice": 1409,
      "models": 1410,
      "sensor": 1411,
      "undra": 1412,
      "Dealer": 1413,
      "RAV": 1414,
      "45": 1415,
      "AWD": 1416,
      "Gas": 1417,
      "Su": 1418,
      "Tundra": 1419,
      "here": 1420,
      "ms": 1421,
      "night": 1422,
      "zed": 1423,
      "already": 1424,
      "rix": 1425,
      "trade": 1426,
      "near": 1427,
      "mode": 1428,
      "supp": 1429,
      "using": 1430,
      "anyone": 1431,
      "contin": 1432,
      "Interior": 1433,
      "drivers": 1434,
      "pleased": 1435,
      "300": 1436,
      "90": 1437,
      "Ro": 1438,
      "fantastic": 1439,
      "lou": 1440,
      "mount": 1441,
      "tail": 1442,
      "ream": 1443,
      "hear": 1444,
      "iced": 1445,
      "bur": 1446,
      "build": 1447,
      "mium": 1448,
      "definitely": 1449,
      "oose": 1450,
      "plan": 1451,
      "aken": 1452,
      "auti": 1453,
      "2005": 1454,
      "handle": 1455,
      "temp": 1456,
      "push": 1457,
      "averag": 1458,
      "clear": 1459,
      "Highland": 1460,
      "custo": 1461,
      "rattles": 1462,
      "original": 1463,
      "26": 1464,
      "Every": 1465,
      "ON": 1466,
      "Some": 1467,
      "az": 1468,
      "cool": 1469,
      "flu": 1470,
      "gi": 1471,
      "lin": 1472,
      "rain": 1473,
      "sque": 1474,
      "wear": 1475,
      "ately": 1476,
      "itan": 1477,
      "entra": 1478,
      "tive": 1479,
      "soon": 1480,
      "plus": 1481,
      "Its": 1482,
      "avy": 1483,
      "crack": 1484,
      "wheels": 1485,
      "turning": 1486,
      "turned": 1487,
      "complaints": 1488,
      "freeway": 1489,
      "paid": 1490,
      "luetooth": 1491,
      "2nd": 1492,
      "En": 1493,
      "Fu": 1494,
      "IS": 1495,
      "Mat": 1496,
      "dro": 1497,
      "each": 1498,
      "fill": 1499,
      "gine": 1500,
      "med": 1501,
      "tic": 1502,
      "taken": 1503,
      "wy": 1504,
      "ary": 1505,
      "ats": 1506,
      "itch": 1507,
      "eld": 1508,
      "main": 1509,
      "ides": 1510,
      "2007": 1511,
      "higher": 1512,
      "board": 1513,
      "fold": 1514,
      "roomy": 1515,
      "making": 1516,
      "Drive": 1517,
      "absolutely": 1518,
      "4Runner": 1519,
      "Good": 1520,
      "bag": 1521,
      "cts": 1522,
      "os": 1523,
      "rand": 1524,
      "third": 1525,
      "remo": 1526,
      "ford": 1527,
      "heavy": 1528,
      "beauti": 1529,
      "extra": 1530,
      "shi": 1531,
      "produ": 1532,
      "antly": 1533,
      "traffic": 1534,
      "says": 1535,
      "standing": 1536,
      "whole": 1537,
      "factory": 1538,
      "options": 1539,
      "covered": 1540,
      "help": 1541,
      "broke": 1542,
      "cylinder": 1543,
      "person": 1544,
      "gallon": 1545,
      "annoying": 1546,
      "fluid": 1547,
      "Matrix": 1548,
      "22": 1549,
      "350": 1550,
      "LL": 1551,
      "Lim": 1552,
      "Mer": 1553,
      "Purchas": 1554,
      "amp": 1555,
      "cam": 1556,
      "fig": 1557,
      "ither": 1558,
      "ient": 1559,
      "ption": 1560,
      "ang": 1561,
      "ising": 1562,
      "research": 1563,
      "although": 1564,
      "stor": 1565,
      "haust": 1566,
      "action": 1567,
      "compet": 1568,
      "sible": 1569,
      "doing": 1570,
      "true": 1571,
      "braking": 1572,
      "complet": 1573,
      "longer": 1574,
      "minor": 1575,
      "cedes": 1576,
      "current": 1577,
      "visibility": 1578,
      "couple": 1579,
      "NOT": 1580,
      "cruise": 1581,
      "toyota": 1582,
      "huge": 1583,
      "screen": 1584,
      "Highlander": 1585,
      "Fuel": 1586,
      "Limited": 1587,
      "Hybrid": 1588,
      "Path": 1589,
      "ST": 1590,
      "bly": 1591,
      "cros": 1592,
      "dream": 1593,
      "hal": 1594,
      "job": 1595,
      "lower": 1596,
      "miss": 1597,
      "ring": 1598,
      "slow": 1599,
      "vy": 1600,
      "ane": 1601,
      "today": 1602,
      "alled": 1603,
      "haven": 1604,
      "sign": 1605,
      "outstanding": 1606,
      "looked": 1607,
      "ches": 1608,
      "turns": 1609,
      "appear": 1610,
      "achine": 1611,
      "diffic": 1612,
      "mini": 1613,
      "mechanical": 1614,
      "150": 1615,
      "21": 1616,
      "400": 1617,
      "CD": 1618,
      "Can": 1619,
      "Well": 1620,
      "cha": 1621,
      "dr": 1622,
      "fall": 1623,
      "flo": 1624,
      "fil": 1625,
      "hind": 1626,
      "mit": 1627,
      "must": 1628,
      "nic": 1629,
      "oc": 1630,
      "rout": 1631,
      "sell": 1632,
      "ted": 1633,
      "uter": 1634,
      "vic": 1635,
      "wo": 1636,
      "wr": 1637,
      "eri": 1638,
      "ention": 1639,
      "stay": 1640,
      "state": 1641,
      "noticed": 1642,
      "exhaust": 1643,
      "const": 1644,
      "truly": 1645,
      "2001": 1646,
      "computer": 1647,
      "2011": 1648,
      "avail": 1649,
      "commute": 1650,
      "What": 1651,
      "feature": 1652,
      "guy": 1653,
      "torque": 1654,
      "Mercedes": 1655,
      "Purchased": 1656,
      "figure": 1657,
      "Pathfinder": 1658,
      "half": 1659,
      "75": 1660,
      "AT": 1661,
      "Sentra": 1662,
      "TO": 1663,
      "Un": 1664,
      "cu": 1665,
      "fer": 1666,
      "fre": 1667,
      "gs": 1668,
      "gri": 1669,
      "grad": 1670,
      "ken": 1671,
      "lbs": 1672,
      "ness": 1673,
      "pan": 1674,
      "ta": 1675,
      "takes": 1676,
      "yes": 1677,
      "leak": 1678,
      "behind": 1679,
      "tron": 1680,
      "kept": 1681,
      "nolog": 1682,
      "quo": 1683,
      "ults": 1684,
      "cannot": 1685,
      "box": 1686,
      "tried": 1687,
      "couldn": 1688,
      "failed": 1689,
      "trail": 1690,
      "happen": 1691,
      "speeds": 1692,
      "windows": 1693,
      "cabin": 1694,
      "Sequo": 1695,
      "switch": 1696,
      "pedal": 1697,
      "satis": 1698,
      "wonderful": 1699,
      "completely": 1700,
      "difficult": 1701,
      "32": 1702,
      "36": 1703,
      "4x": 1704,
      "Ar": 1705,
      "Do": 1706,
      "Even": 1707,
      "He": 1708,
      "blow": 1709,
      "center": 1710,
      "eep": 1711,
      "either": 1712,
      "hood": 1713,
      "list": 1714,
      "mad": 1715,
      "yr": 1716,
      "ision": 1717,
      "ote": 1718,
      "might": 1719,
      "une": 1720,
      "unless": 1721,
      "exc": 1722,
      "plu": 1723,
      "2009": 1724,
      "working": 1725,
      "maintain": 1726,
      "materi": 1727,
      "pull": 1728,
      "sounds": 1729,
      "decent": 1730,
      "VER": 1731,
      "gives": 1732,
      "hope": 1733,
      "sunroof": 1734,
      "including": 1735,
      "break": 1736,
      "accident": 1737,
      "LOVE": 1738,
      "shield": 1739,
      "routine": 1740,
      "Sequoia": 1741,
      "1st": 1742,
      "27": 1743,
      "Best": 1744,
      "Ha": 1745,
      "Per": 1746,
      "Titan": 1747,
      "call": 1748,
      "ds": 1749,
      "ef": 1750,
      "ged": 1751,
      "gone": 1752,
      "har": 1753,
      "hwy": 1754,
      "machine": 1755,
      "zer": 1756,
      "ark": 1757,
      "enti": 1758,
      "along": 1759,
      "ster": 1760,
      "forward": 1761,
      "otas": 1762,
      "heat": 1763,
      "adver": 1764,
      "milar": 1765,
      "similar": 1766,
      "notice": 1767,
      "load": 1768,
      "loaded": 1769,
      "frame": 1770,
      "color": 1771,
      "2014": 1772,
      "liter": 1773,
      "tranny": 1774,
      "ease": 1775,
      "fied": 1776,
      "grade": 1777,
      "complaint": 1778,
      "base": 1779,
      "ownership": 1780,
      "considering": 1781,
      "combined": 1782,
      "floor": 1783,
      "available": 1784,
      "nology": 1785,
      "4x4": 1786,
      "\".": 1787,
      "38": 1788,
      "65": 1789,
      "Look": 1790,
      "Never": 1791,
      "New": 1792,
      "Power": 1793,
      "Qu": 1794,
      "SR": 1795,
      "ks": 1796,
      "phone": 1797,
      "usu": 1798,
      "ye": 1799,
      "ans": 1800,
      "requi": 1801,
      "lear": 1802,
      "orts": 1803,
      "item": 1804,
      "seen": 1805,
      "adults": 1806,
      "above": 1807,
      "conf": 1808,
      "ents": 1809,
      "sum": 1810,
      "ress": 1811,
      "offer": 1812,
      "2016": 1813,
      "trans": 1814,
      "timing": 1815,
      "accelerate": 1816,
      "daily": 1817,
      "extended": 1818,
      "radiator": 1819,
      "addition": 1820,
      "trying": 1821,
      "range": 1822,
      "pickup": 1823,
      "impressed": 1824,
      "surprised": 1825,
      "pressure": 1826,
      "Sport": 1827,
      "RAV4": 1828,
      "mountain": 1829,
      "beautiful": 1830,
      "filter": 1831,
      "advert": 1832,
      "$$": 1833,
      "34": 1834,
      "4th": 1835,
      "4WD": 1836,
      "ES": 1837,
      "Hand": 1838,
      "TR": 1839,
      "To": 1840,
      "Tran": 1841,
      "XLE": 1842,
      "cing": 1843,
      "cour": 1844,
      "ctron": 1845,
      "ded": 1846,
      "dge": 1847,
      "gen": 1848,
      "gain": 1849,
      "hatch": 1850,
      "kind": 1851,
      "mention": 1852,
      "none": 1853,
      "nissan": 1854,
      "rust": 1855,
      "slu": 1856,
      "taking": 1857,
      "wd": 1858,
      "era": 1859,
      "reach": 1860,
      "enz": 1861,
      "stre": 1862,
      "version": 1863,
      "ghter": 1864,
      "terrible": 1865,
      "mix": 1866,
      "sold": 1867,
      "conven": 1868,
      "weight": 1869,
      "highly": 1870,
      "2017": 1871,
      "appro": 1872,
      "speak": 1873,
      "dist": 1874,
      "SUVs": 1875,
      "finally": 1876,
      "bigger": 1877,
      "weekend": 1878,
      "Versa": 1879,
      "basic": 1880,
      "limited": 1881,
      "broken": 1882,
      "clean": 1883,
      "bumper": 1884,
      "technology": 1885,
      "single": 1886,
      "electric": 1887,
      "storage": 1888,
      "33": 1889,
      "330": 1890,
      "Br": 1891,
      "Co": 1892,
      "GM": 1893,
      "Le": 1894,
      "Ne": 1895,
      "Pre": 1896,
      "V8": 1897,
      "Yaris": 1898,
      "cup": 1899,
      "effic": 1900,
      "gre": 1901,
      "gar": 1902,
      "ging": 1903,
      "gau": 1904,
      "gate": 1905,
      "hate": 1906,
      "kno": 1907,
      "mor": 1908,
      "non": 1909,
      "ol": 1910,
      "sl": 1911,
      "sle": 1912,
      "tend": 1913,
      "thous": 1914,
      "inum": 1915,
      "iser": 1916,
      "redi": 1917,
      "stiff": 1918,
      "elt": 1919,
      "heated": 1920,
      "tern": 1921,
      "terra": 1922,
      "child": 1923,
      "wasn": 1924,
      "allow": 1925,
      "owning": 1926,
      "amount": 1927,
      "hile": 1928,
      "gotten": 1929,
      "premium": 1930,
      "pract": 1931,
      "finish": 1932,
      "incredi": 1933,
      "dama": 1934,
      "added": 1935,
      "experienced": 1936,
      "passengers": 1937,
      "coupe": 1938,
      "flaw": 1939,
      "hours": 1940,
      "friends": 1941,
      "button": 1942,
      "Most": 1943,
      "continu": 1944,
      "loud": 1945,
      "thousand": 1946,
      "3000": 1947,
      "Don": 1948,
      "M3": 1949,
      "Ser": 1950,
      "While": 1951,
      "coun": 1952,
      "fell": 1953,
      "fair": 1954,
      "fav": 1955,
      "hp": 1956,
      "mind": 1957,
      "smo": 1958,
      "slight": 1959,
      "tall": 1960,
      "wise": 1961,
      "anger": 1962,
      "relat": 1963,
      "beat": 1964,
      "acious": 1965,
      "conne": 1966,
      "spare": 1967,
      "ells": 1968,
      "opin": 1969,
      "compli": 1970,
      "2012": 1971,
      "2015": 1972,
      "vibr": 1973,
      "display": 1974,
      "happier": 1975,
      "keeping": 1976,
      "parking": 1977,
      "blind": 1978,
      "mechanic": 1979,
      "28i": 1980,
      "guess": 1981,
      "superb": 1982,
      "sticker": 1983,
      "electrical": 1984,
      "noisy": 1985,
      "hills": 1986,
      "afford": 1987,
      "soft": 1988,
      "course": 1989,
      "31": 1990,
      "55": 1991,
      "Bo": 1992,
      "Bluetooth": 1993,
      "CA": 1994,
      "Ci": 1995,
      "ER": 1996,
      "Lots": 1997,
      "Our": 1998,
      "PO": 1999,
      "St": 2000,
      "Up": 2001,
      "Would": 2002,
      "bal": 2003,
      "cess": 2004,
      "clim": 2005,
      "dle": 2006,
      "felt": 2007,
      "loose": 2008,
      "scr": 2009,
      "iness": 2010,
      "ones": 2011,
      "ren": 2012,
      "itors": 2013,
      "total": 2014,
      "ali": 2015,
      "stru": 2016,
      "roll": 2017,
      "liked": 2018,
      "mil": 2019,
      "unately": 2020,
      "whist": 2021,
      "mob": 2022,
      "cons": 2023,
      "consu": 2024,
      "spend": 2025,
      "max": 2026,
      "prov": 2027,
      "worst": 2028,
      "2002": 2029,
      "lum": 2030,
      "luck": 2031,
      "typ": 2032,
      "col": 2033,
      "boat": 2034,
      "deli": 2035,
      "stead": 2036,
      "understand": 2037,
      "MPH": 2038,
      "regre": 2039,
      "electron": 2040,
      "stock": 2041,
      "case": 2042,
      "ING": 2043,
      "mirror": 2044,
      "mirrors": 2045,
      "stuff": 2046,
      "simply": 2047,
      "bags": 2048,
      "camera": 2049,
      "occas": 2050,
      "frequ": 2051,
      "trailer": 2052,
      "mada": 2053,
      "materials": 2054,
      "advertised": 2055,
      "opinion": 2056,
      ".)": 2057,
      "06": 2058,
      "AV": 2059,
      "Any": 2060,
      "CO": 2061,
      "Con": 2062,
      "FJ": 2063,
      "Fe": 2064,
      "Fun": 2065,
      "UN": 2066,
      "Xterra": 2067,
      "ale": 2068,
      "fan": 2069,
      "face": 2070,
      "gave": 2071,
      "jo": 2072,
      "ky": 2073,
      "uri": 2074,
      "inve": 2075,
      "ints": 2076,
      "rece": 2077,
      "order": 2078,
      "ities": 2079,
      "hesit": 2080,
      "ters": 2081,
      "ched": 2082,
      "common": 2083,
      "comments": 2084,
      "six": 2085,
      "sole": 2086,
      "concer": 2087,
      "loy": 2088,
      "sub": 2089,
      "Thank": 2090,
      "weak": 2091,
      "uses": 2092,
      "someone": 2093,
      "everyone": 2094,
      "itself": 2095,
      "dealers": 2096,
      "purchasing": 2097,
      "windshield": 2098,
      "towed": 2099,
      "expectations": 2100,
      "cord": 2101,
      "manufact": 2102,
      "shifting": 2103,
      "difference": 2104,
      "Audi": 2105,
      "responsive": 2106,
      "nearly": 2107,
      "Engine": 2108,
      "currently": 2109,
      "Armada": 2110,
      "items": 2111,
      "summer": 2112,
      "Transmission": 2113,
      "favor": 2114,
      "relative": 2115,
      "compliments": 2116,
      "occasion": 2117,
      "invest": 2118,
      "325": 2119,
      "4wd": 2120,
      "AB": 2121,
      "Amer": 2122,
      "GP": 2123,
      "Get": 2124,
      "Has": 2125,
      "Ju": 2126,
      "LY": 2127,
      "Li": 2128,
      "Plenty": 2129,
      "Took": 2130,
      "X3": 2131,
      "Yes": 2132,
      "bot": 2133,
      "block": 2134,
      "bells": 2135,
      "cat": 2136,
      "fits": 2137,
      "gue": 2138,
      "hop": 2139,
      "io": 2140,
      "ired": 2141,
      "mber": 2142,
      "ners": 2143,
      "pad": 2144,
      "sen": 2145,
      "tou": 2146,
      "atten": 2147,
      "iti": 2148,
      "step": 2149,
      "rif": 2150,
      "heard": 2151,
      "dead": 2152,
      "track": 2153,
      "traction": 2154,
      "uncomfortable": 2155,
      "thats": 2156,
      "console": 2157,
      "local": 2158,
      "spacious": 2159,
      "sul": 2160,
      "owners": 2161,
      "ific": 2162,
      "loves": 2163,
      "Toyotas": 2164,
      "place": 2165,
      "powered": 2166,
      "replacing": 2167,
      "sometimes": 2168,
      "comple": 2169,
      "compar": 2170,
      "compact": 2171,
      "comparis": 2172,
      "feeling": 2173,
      "prior": 2174,
      "dies": 2175,
      "timate": 2176,
      "prom": 2177,
      "rating": 2178,
      "rattle": 2179,
      "decision": 2180,
      "pleasure": 2181,
      "enjoyed": 2182,
      "sensors": 2183,
      "quickly": 2184,
      "recalls": 2185,
      "middle": 2186,
      "installed": 2187,
      "shows": 2188,
      "Excellent": 2189,
      "improved": 2190,
      "THE": 2191,
      "Chevy": 2192,
      "Everything": 2193,
      "competitors": 2194,
      "panel": 2195,
      "happened": 2196,
      "zero": 2197,
      "Both": 2198,
      "mobile": 2199,
      "Americ": 2200,
      "($": 2201,
      "29": 2202,
      "39": 2203,
      "??": 2204,
      "ALL": 2205,
      "CH": 2206,
      "ED": 2207,
      "Es": 2208,
      "OK": 2209,
      "Pl": 2210,
      "RI": 2211,
      "Tur": 2212,
      "Tru": 2213,
      "Two": 2214,
      "US": 2215,
      "band": 2216,
      "ges": 2217,
      "gative": 2218,
      "kn": 2219,
      "rp": 2220,
      "wag": 2221,
      "inch": 2222,
      "instead": 2223,
      "rect": 2224,
      "ley": 2225,
      "oub": 2226,
      "entry": 2227,
      "beg": 2228,
      "move": 2229,
      "loc": 2230,
      "irt": 2231,
      "Then": 2232,
      "upgrade": 2233,
      "fortunately": 2234,
      "sales": 2235,
      "world": 2236,
      "placed": 2237,
      "everywhere": 2238,
      "compare": 2239,
      "worked": 2240,
      "older": 2241,
      "ileage": 2242,
      "performs": 2243,
      "performed": 2244,
      "serious": 2245,
      "valve": 2246,
      "yourself": 2247,
      "towing": 2248,
      "headlights": 2249,
      "thinking": 2250,
      "rated": 2251,
      "radius": 2252,
      "park": 2253,
      "based": 2254,
      "exception": 2255,
      "holders": 2256,
      "maybe": 2257,
      "starter": 2258,
      "starts": 2259,
      "starting": 2260,
      "stopped": 2261,
      "certain": 2262,
      "paying": 2263,
      "conditions": 2264,
      "dependable": 2265,
      "combination": 2266,
      "glad": 2267,
      "Comfort": 2268,
      "horse": 2269,
      "failure": 2270,
      "Rogue": 2271,
      "averaged": 2272,
      "customer": 2273,
      "squeaks": 2274,
      "product": 2275,
      "chain": 2276,
      "graded": 2277,
      "usually": 2278,
      "Need": 2279,
      "gauge": 2280,
      "Civic": 2281,
      "whistles": 2282,
      "urious": 2283,
      "attention": 2284,
      "comparison": 2285,
      "07": 2286,
      "600": 2287,
      "800": 2288,
      "BU": 2289,
      "EN": 2290,
      "Ger": 2291,
      "HP": 2292,
      "Jeep": 2293,
      "Mine": 2294,
      "Mileage": 2295,
      "Nice": 2296,
      "Plat": 2297,
      "Rear": 2298,
      "SL": 2299,
      "Since": 2300,
      "Z4": 2301,
      "bor": 2302,
      "blue": 2303,
      "creat": 2304,
      "dd": 2305,
      "gon": 2306,
      "ggest": 2307,
      "kes": 2308,
      "late": 2309,
      "mm": 2310,
      "osed": 2311,
      "ph": 2312,
      "ss": 2313,
      "sli": 2314,
      "ton": 2315,
      "tally": 2316,
      "ances": 2317,
      "erous": 2318,
      "thetic": 2319,
      "leaks": 2320,
      "ars": 2321,
      "ask": 2322,
      "totally": 2323,
      "altern": 2324,
      "hes": 2325,
      "chose": 2326,
      "lift": 2327,
      "train": 2328,
      "negative": 2329,
      "spring": 2330,
      "proper": 2331,
      "ulous": 2332,
      "indic": 2333,
      "audi": 2334,
      "worse": 2335,
      "gasket": 2336,
      "type": 2337,
      "coil": 2338,
      "priced": 2339,
      "craz": 2340,
      "warm": 2341,
      "50k": 2342,
      "heads": 2343,
      "reading": 2344,
      "camp": 2345,
      "costs": 2346,
      "ground": 2347,
      "smaller": 2348,
      "100k": 2349,
      "sitting": 2350,
      "gears": 2351,
      "finiti": 2352,
      "gged": 2353,
      "noises": 2354,
      "Accord": 2355,
      "stuck": 2356,
      "simple": 2357,
      "position": 2358,
      "Dealership": 2359,
      "liner": 2360,
      "cracked": 2361,
      "cross": 2362,
      "minivan": 2363,
      "nicely": 2364,
      "satisfied": 2365,
      "yrs": 2366,
      "Perform": 2367,
      "required": 2368,
      "mixed": 2369,
      "garage": 2370,
      "milage": 2371,
      "joints": 2372,
      "GPS": 2373,
      "Platinum": 2374,
      "crazy": 2375,
      "05": 2376,
      "09": 2377,
      "5000": 2378,
      "99": 2379,
      "BL": 2380,
      "CR": 2381,
      "Ch": 2382,
      "Dod": 2383,
      "Mich": 2384,
      "Nav": 2385,
      "Rel": 2386,
      "Rav": 2387,
      "Ride": 2388,
      "Was": 2389,
      "bi": 2390,
      "bare": 2391,
      "bers": 2392,
      "cri": 2393,
      "cant": 2394,
      "dau": 2395,
      "doub": 2396,
      "eye": 2397,
      "fir": 2398,
      "junk": 2399,
      "mw": 2400,
      "pie": 2401,
      "rate": 2402,
      "initi": 2403,
      "att": 2404,
      "tom": 2405,
      "vers": 2406,
      "acity": 2407,
      "sey": 2408,
      "rock": 2409,
      "ado": 2410,
      "within": 2411,
      "bul": 2412,
      "commu": 2413,
      "spot": 2414,
      "spent": 2415,
      ".....": 2416,
      "shut": 2417,
      "suggest": 2418,
      "quest": 2419,
      "upgraded": 2420,
      "resale": 2421,
      "ender": 2422,
      "vent": 2423,
      "interstate": 2424,
      "hands": 2425,
      "brought": 2426,
      "turbo": 2427,
      "warning": 2428,
      "rail": 2429,
      "automobile": 2430,
      "larger": 2431,
      "tility": 2432,
      "1500": 2433,
      "shifts": 2434,
      "reasons": 2435,
      "superior": 2436,
      "malfunction": 2437,
      "reali": 2438,
      "luxurious": 2439,
      "bumpy": 2440,
      "1997": 2441,
      "dashboard": 2442,
      "player": 2443,
      "ggish": 2444,
      "shocks": 2445,
      "AND": 2446,
      "numerous": 2447,
      "buttons": 2448,
      "giving": 2449,
      "isingly": 2450,
      "cush": 2451,
      "Having": 2452,
      "gener": 2453,
      "sluggish": 2454,
      "enza": 2455,
      "street": 2456,
      "distance": 2457,
      "morning": 2458,
      "practical": 2459,
      "incredible": 2460,
      "struts": 2461,
      "touch": 2462,
      "Truck": 2463,
      "daughter": 2464,
      "doubt": 2465,
      "commuter": 2466,
      "\",": 2467,
      "1000": 2468,
      "5K": 2469,
      "Ab": 2470,
      "Ed": 2471,
      "EVER": 2472,
      "GT": 2473,
      "GRE": 2474,
      "JBL": 2475,
      "Last": 2476,
      "May": 2477,
      "Nor": 2478,
      "OR": 2479,
      "Pro": 2480,
      "Pass": 2481,
      "Que": 2482,
      "SC": 2483,
      "TA": 2484,
      "WA": 2485,
      "ah": 2486,
      "ball": 2487,
      "bluetooth": 2488,
      "bmw": 2489,
      "cket": 2490,
      "equ": 2491,
      "fy": 2492,
      "iod": 2493,
      "je": 2494,
      "lish": 2495,
      "mund": 2496,
      "pave": 2497,
      "treat": 2498,
      "utility": 2499,
      "var": 2500,
      "insur": 2501,
      "ref": 2502,
      "resul": 2503,
      "lemon": 2504,
      "leave": 2505,
      "arm": 2506,
      "aster": 2507,
      "stly": 2508,
      "stra": 2509,
      "bear": 2510,
      "admit": 2511,
      "choose": 2512,
      "These": 2513,
      "deep": 2514,
      "llow": 2515,
      "cept": 2516,
      "suv": 2517,
      "dog": 2518,
      "period": 2519,
      "newer": 2520,
      "save": 2521,
      "comfortably": 2522,
      "ouring": 2523,
      "mostly": 2524,
      "compon": 2525,
      "company": 2526,
      "fog": 2527,
      "follow": 2528,
      "trim": 2529,
      "adequ": 2530,
      "Infiniti": 2531,
      "smoother": 2532,
      "steep": 2533,
      "smoothly": 2534,
      "biggest": 2535,
      "imal": 2536,
      "perfectly": 2537,
      "setting": 2538,
      "sitive": 2539,
      "Front": 2540,
      "holds": 2541,
      "capacity": 2542,
      "voice": 2543,
      "baru": 2544,
      "Acceler": 2545,
      "Subaru": 2546,
      "supposed": 2547,
      "averaging": 2548,
      "clearance": 2549,
      "given": 2550,
      "removed": 2551,
      "constantly": 2552,
      "blows": 2553,
      "Looks": 2554,
      "efficient": 2555,
      "damage": 2556,
      "Update": 2557,
      "climate": 2558,
      "consist": 2559,
      "regret": 2560,
      "relatively": 2561,
      "diesel": 2562,
      "rpm": 2563,
      "wagon": 2564,
      "audio": 2565,
      "Dodge": 2566,
      "straight": 2567,
      "08": 2568,
      "42": 2569,
      "4X": 2570,
      "4000": 2571,
      "An": 2572,
      "AST": 2573,
      "Bu": 2574,
      "Bose": 2575,
      "CE": 2576,
      "Could": 2577,
      "Cru": 2578,
      "DO": 2579,
      "Did": 2580,
      "Drove": 2581,
      "EA": 2582,
      "EM": 2583,
      "Fit": 2584,
      "Is": 2585,
      "June": 2586,
      "LS": 2587,
      "M5": 2588,
      "Maz": 2589,
      "PM": 2590,
      "Pors": 2591,
      "RX": 2592,
      "Sh": 2593,
      "Spe": 2594,
      "Venza": 2595,
      "YO": 2596,
      "aid": 2597,
      "ben": 2598,
      "bab": 2599,
      "bright": 2600,
      "ctive": 2601,
      "gal": 2602,
      "hur": 2603,
      "kick": 2604,
      "lane": 2605,
      "nia": 2606,
      "wood": 2607,
      "zz": 2608,
      "thus": 2609,
      "throt": 2610,
      "ines": 2611,
      "toge": 2612,
      "aly": 2613,
      "stri": 2614,
      "fornia": 2615,
      "often": 2616,
      "iculous": 2617,
      "esp": 2618,
      "ading": 2619,
      "tie": 2620,
      "uni": 2621,
      "mean": 2622,
      "sized": 2623,
      "thern": 2624,
      "thermost": 2625,
      "west": 2626,
      "update": 2627,
      "ometer": 2628,
      "ppy": 2629,
      "anywhere": 2630,
      "utes": 2631,
      "utation": 2632,
      "cted": 2633,
      "lume": 2634,
      "agno": 2635,
      "bring": 2636,
      "compart": 2637,
      "airbags": 2638,
      "2018": 2639,
      "apart": 2640,
      "ept": 2641,
      "!!!!": 2642,
      "wants": 2643,
      "reci": 2644,
      "appreci": 2645,
      "ience": 2646,
      "awful": 2647,
      "underpowered": 2648,
      "accelerating": 2649,
      "passing": 2650,
      "below": 2651,
      "belts": 2652,
      "Nothing": 2653,
      "expecting": 2654,
      "regard": 2655,
      "cial": 2656,
      "remote": 2657,
      "Once": 2658,
      "100K": 2659,
      "seconds": 2660,
      "mechanically": 2661,
      "Seats": 2662,
      "path": 2663,
      "impressive": 2664,
      "checked": 2665,
      "breaks": 2666,
      "hauling": 2667,
      "keyless": 2668,
      "previously": 2669,
      "rotors": 2670,
      "improvement": 2671,
      "glass": 2672,
      "Auto": 2673,
      "charge": 2674,
      "charged": 2675,
      "horrible": 2676,
      "coolant": 2677,
      "drop": 2678,
      "remove": 2679,
      "Unfortunately": 2680,
      "ential": 2681,
      "literally": 2682,
      "Premium": 2683,
      "fairly": 2684,
      "typical": 2685,
      "receive": 2686,
      "pads": 2687,
      "complete": 2688,
      "known": 2689,
      "horsepower": 2690,
      "gonom": 2691,
      "Performance": 2692,
      "Reli": 2693,
      "barely": 2694,
      "GREAT": 2695,
      "Quest": 2696,
      "munds": 2697,
      "insurance": 2698,
      "adequate": 2699,
      "throttle": 2700,
      "together": 2701,
      "thermostat": 2702,
      "02": 2703,
      "120": 2704,
      "41": 2705,
      "5th": 2706,
      "6k": 2707,
      "98": 2708,
      "Again": 2709,
      "BE": 2710,
      "Cab": 2711,
      "Cali": 2712,
      "EX": 2713,
      "Got": 2714,
      "HI": 2715,
      "Lu": 2716,
      "Land": 2717,
      "NAV": 2718,
      "RPM": 2719,
      "Will": 2720,
      "ban": 2721,
      "bes": 2722,
      "blast": 2723,
      "bang": 2724,
      "fur": 2725,
      "five": 2726,
      "hon": 2727,
      "ied": 2728,
      "mess": 2729,
      "ns": 2730,
      "nthetic": 2731,
      "pul": 2732,
      "rac": 2733,
      "rack": 2734,
      "round": 2735,
      "son": 2736,
      "tear": 2737,
      "ual": 2738,
      "inally": 2739,
      "inform": 2740,
      "anes": 2741,
      "refin": 2742,
      "ature": 2743,
      "itive": 2744,
      "velo": 2745,
      "tota": 2746,
      "entire": 2747,
      "align": 2748,
      "stable": 2749,
      "forts": 2750,
      "elin": 2751,
      "accept": 2752,
      "sets": 2753,
      "bus": 2754,
      "unch": 2755,
      "means": 2756,
      "sil": 2757,
      "sides": 2758,
      "exact": 2759,
      "loss": 2760,
      "spr": 2761,
      "ions": 2762,
      "weird": 2763,
      "ultimate": 2764,
      "ounts": 2765,
      "utch": 2766,
      "ages": 2767,
      "wouldn": 2768,
      "mud": 2769,
      "bol": 2770,
      "descri": 2771,
      "aftermarket": 2772,
      "synthetic": 2773,
      "crit": 2774,
      "crash": 2775,
      "reputation": 2776,
      "chea": 2777,
      "Although": 2778,
      "diagno": 2779,
      "import": 2780,
      "impos": 2781,
      "saying": 2782,
      "prote": 2783,
      "rather": 2784,
      "riding": 2785,
      "ridiculous": 2786,
      "forever": 2787,
      "caused": 2788,
      "stylish": 2789,
      "gram": 2790,
      "seemed": 2791,
      "cloth": 2792,
      "stops": 2793,
      "converter": 2794,
      "held": 2795,
      "Driving": 2796,
      "considered": 2797,
      "included": 2798,
      "volume": 2799,
      "surprise": 2800,
      "access": 2801,
      "Comp": 2802,
      "numbers": 2803,
      "possible": 2804,
      "continue": 2805,
      "temper": 2806,
      "appearance": 2807,
      "selling": 2808,
      "write": 2809,
      "figured": 2810,
      "plush": 2811,
      "additional": 2812,
      "mountains": 2813,
      "mentioned": 2814,
      "approx": 2815,
      "children": 2816,
      "allows": 2817,
      "continues": 2818,
      "smoke": 2819,
      "slightly": 2820,
      "affordable": 2821,
      "balance": 2822,
      "colle": 2823,
      "electronic": 2824,
      "loyal": 2825,
      "ABS": 2826,
      "sense": 2827,
      "American": 2828,
      "Plus": 2829,
      "boring": 2830,
      "firm": 2831,
      "components": 2832,
      "Mazda": 2833,
      "baby": 2834,
      "California": 2835,
      "refined": 2836,
      "totaled": 2837,
      "impossible": 2838,
      "37": 2839,
      "335": 2840,
      "AD": 2841,
      "Aw": 2842,
      "By": 2843,
      "Bim": 2844,
      "DI": 2845,
      "DRI": 2846,
      "ET": 2847,
      "Echo": 2848,
      "IL": 2849,
      "Jan": 2850,
      "Kia": 2851,
      "ME": 2852,
      "Next": 2853,
      "OEM": 2854,
      "Pe": 2855,
      "Po": 2856,
      "Pack": 2857,
      "Rides": 2858,
      "Sa": 2859,
      "Sm": 2860,
      "She": 2861,
      "Te": 2862,
      "Ti": 2863,
      "Ter": 2864,
      "VW": 2865,
      "Ve": 2866,
      "aired": 2867,
      "bble": 2868,
      "book": 2869,
      "coo": 2870,
      "ev": 2871,
      "equi": 2872,
      "fro": 2873,
      "faster": 2874,
      "hus": 2875,
      "iDrive": 2876,
      "ju": 2877,
      "knew": 2878,
      "lb": 2879,
      "mom": 2880,
      "mul": 2881,
      "oct": 2882,
      "rav": 2883,
      "sk": 2884,
      "ses": 2885,
      "sch": 2886,
      "ssey": 2887,
      "watch": 2888,
      "inexpensive": 2889,
      "answ": 2890,
      "ered": 2891,
      "ergonom": 2892,
      "ond": 2893,
      "rev": 2894,
      "vet": 2895,
      "haps": 2896,
      "elic": 2897,
      "carry": 2898,
      "wipers": 2899,
      "seal": 2900,
      "tired": 2901,
      "term": 2902,
      "chi": 2903,
      "chip": 2904,
      "dest": 2905,
      "defe": 2906,
      "comforts": 2907,
      "exas": 2908,
      "conv": 2909,
      "spd": 2910,
      "proof": 2911,
      "program": 2912,
      "doll": 2913,
      "wet": 2914,
      "ified": 2915,
      "ulty": 2916,
      "seating": 2917,
      "sale": 2918,
      "saved": 2919,
      "backseat": 2920,
      "roadster": 2921,
      "ager": 2922,
      "avg": 2923,
      "positive": 2924,
      "event": 2925,
      "prices": 2926,
      "prefer": 2927,
      "tware": 2928,
      "dont": 2929,
      "serv": 2930,
      "dime": 2931,
      "rection": 2932,
      "putting": 2933,
      "cape": 2934,
      "Solar": 2935,
      "clutch": 2936,
      "corolla": 2937,
      "cording": 2938,
      "corners": 2939,
      "correct": 2940,
      "dyssey": 2941,
      "crew": 2942,
      "name": 2943,
      "From": 2944,
      "60k": 2945,
      "capable": 2946,
      "obvious": 2947,
      "include": 2948,
      "1998": 2949,
      "1999": 2950,
      "locks": 2951,
      "surprisingly": 2952,
      "shape": 2953,
      "shaft": 2954,
      "ross": 2955,
      "rattling": 2956,
      "depending": 2957,
      "okay": 2958,
      "software": 2959,
      "More": 2960,
      "support": 2961,
      "louder": 2962,
      "custom": 2963,
      "random": 2964,
      "ample": 2965,
      "competition": 2966,
      "signific": 2967,
      "pulling": 2968,
      "effort": 2969,
      "Quality": 2970,
      "offered": 2971,
      "Handling": 2972,
      "hatchback": 2973,
      "speakers": 2974,
      "Color": 2975,
      "knock": 2976,
      "Service": 2977,
      "frequent": 2978,
      "Thanks": 2979,
      "July": 2980,
      "rific": 2981,
      "begin": 2982,
      "German": 2983,
      "alternator": 2984,
      "properly": 2985,
      "Michelin": 2986,
      "Edmunds": 2987,
      "various": 2988,
      "Acceleration": 2989,
      "Cruiser": 2990,
      "pathfinder": 2991,
      "important": 2992,
      "Bimmer": 2993,
      "Package": 2994,
      "school": 2995,
      ".,": 2996,
      "04": 2997,
      "135": 2998,
      "328i": 2999,
      "530": 3000,
      "700": 3001,
      "750": 3002,
      "95": 3003,
      "Celic": 3004,
      "DE": 3005,
      "During": 3006,
      "Flor": 3007,
      "LI": 3008,
      "MG": 3009,
      "Min": 3010,
      "NEVER": 3011,
      "Oh": 3012,
      "Ow": 3013,
      "Odyssey": 3014,
      "Rad": 3015,
      "SI": 3016,
      "SP": 3017,
      "Sou": 3018,
      "Sil": 3019,
      "Ste": 3020,
      "Ta": 3021,
      "Top": 3022,
      "Texas": 3023,
      "UCH": 3024,
      "Vol": 3025,
      "aim": 3026,
      "boun": 3027,
      "clu": 3028,
      "catch": 3029,
      "dated": 3030,
      "eu": 3031,
      "fac": 3032,
      "gly": 3033,
      "hy": 3034,
      "iP": 3035,
      "iet": 3036,
      "jack": 3037,
      "kely": 3038,
      "mas": 3039,
      "mes": 3040,
      "mist": 3041,
      "opp": 3042,
      "pot": 3043,
      "pur": 3044,
      "pain": 3045,
      "sis": 3046,
      "sand": 3047,
      "sel": 3048,
      "swe": 3049,
      "smile": 3050,
      "slid": 3051,
      "tough": 3052,
      "uled": 3053,
      "uary": 3054,
      "v6": 3055,
      "vable": 3056,
      "yond": 3057,
      "zes": 3058,
      "tho": 3059,
      "thin": 3060,
      "thru": 3061,
      "anti": 3062,
      "ises": 3063,
      "rel": 3064,
      "returned": 3065,
      "remain": 3066,
      "leaking": 3067,
      "arp": 3068,
      "orter": 3069,
      "attr": 3070,
      "iting": 3071,
      "str": 3072,
      "station": 3073,
      "stated": 3074,
      "strand": 3075,
      "ried": 3076,
      "versa": 3077,
      "height": 3078,
      "wide": 3079,
      "became": 3080,
      "beyond": 3081,
      "accur": 3082,
      "active": 3083,
      "buck": 3084,
      "chr": 3085,
      "likely": 3086,
      "develo": 3087,
      "unlike": 3088,
      "white": 3089,
      "mod": 3090,
      "moon": 3091,
      "arent": 3092,
      "sharp": 3093,
      "shorter": 3094,
      "plat": 3095,
      "ida": 3096,
      "iding": 3097,
      "idence": 3098,
      "dogs": 3099,
      "amen": 3100,
      "smart": 3101,
      "ctor": 3102,
      "worry": 3103,
      "willing": 3104,
      "interest": 3105,
      "intermit": 3106,
      "agree": 3107,
      "intake": 3108,
      "somewhat": 3109,
      "colum": 3110,
      "compress": 3111,
      "vide": 3112,
      "downside": 3113,
      "report": 3114,
      "reports": 3115,
      "systems": 3116,
      "ipment": 3117,
      "maneu": 3118,
      "ured": 3119,
      "fault": 3120,
      "faulty": 3121,
      "recent": 3122,
      "30k": 3123,
      "apped": 3124,
      "useless": 3125,
      "aware": 3126,
      "finding": 3127,
      "leased": 3128,
      "matter": 3129,
      "ramp": 3130,
      "Why": 3131,
      "seeing": 3132,
      "against": 3133,
      "tested": 3134,
      "clunk": 3135,
      "claim": 3136,
      "rub": 3137,
      "economical": 3138,
      "grand": 3139,
      "40k": 3140,
      "minimal": 3141,
      "recommended": 3142,
      "please": 3143,
      "exceed": 3144,
      "imagine": 3145,
      "limit": 3146,
      "poorly": 3147,
      "sedans": 3148,
      "Drives": 3149,
      "bumps": 3150,
      "regularly": 3151,
      "flats": 3152,
      "Rec": 3153,
      "Reg": 3154,
      "vol": 3155,
      "shopping": 3156,
      "rental": 3157,
      "honestly": 3158,
      "install": 3159,
      "instru": 3160,
      "lacks": 3161,
      "screw": 3162,
      "idea": 3163,
      "THIS": 3164,
      "waiting": 3165,
      "number": 3166,
      "burban": 3167,
      "lines": 3168,
      "medi": 3169,
      "crosso": 3170,
      "draw": 3171,
      "falling": 3172,
      "grip": 3173,
      "harsh": 3174,
      "TRD": 3175,
      "convenience": 3176,
      "knob": 3177,
      "sleek": 3178,
      "flawless": 3179,
      "vibration": 3180,
      "consumer": 3181,
      "frequently": 3182,
      "manufactur": 3183,
      "favorite": 3184,
      "occasionally": 3185,
      "Like": 3186,
      "ALLY": 3187,
      "Escape": 3188,
      "location": 3189,
      "Comfortable": 3190,
      "camping": 3191,
      "CRV": 3192,
      "piece": 3193,
      "attach": 3194,
      "equipment": 3195,
      "pavement": 3196,
      "Porsche": 3197,
      "Spec": 3198,
      "hurt": 3199,
      "appreciate": 3200,
      "received": 3201,
      "business": 3202,
      "temperature": 3203,
      "Awesome": 3204,
      "cooling": 3205,
      "husband": 3206,
      "multi": 3207,
      "answer": 3208,
      "Solara": 3209,
      "Colorado": 3210,
      "Florida": 3211,
      "Owned": 3212,
      "Silver": 3213,
      "Volvo": 3214,
      "sliding": 3215,
      "intermitt": 3216,
      "compressor": 3217,
      "!)": 3218,
      "03": 3219,
      "1200": 3220,
      "48": 3221,
      "4k": 3222,
      "540": 3223,
      "528i": 3224,
      "6K": 3225,
      "7K": 3226,
      "85": 3227,
      "89": 3228,
      "92": 3229,
      "97": 3230,
      "911": 3231,
      "AL": 3232,
      "Ano": 3233,
      "Apri": 3234,
      "Acur": 3235,
      "Bas": 3236,
      "Back": 3237,
      "CK": 3238,
      "Cons": 3239,
      "CPO": 3240,
      "DSC": 3241,
      "Eas": 3242,
      "FUN": 3243,
      "GO": 3244,
      "Go": 3245,
      "Grand": 3246,
      "ILL": 3247,
      "Mi": 3248,
      "Many": 3249,
      "O2": 3250,
      "Of": 3251,
      "Oil": 3252,
      "Pros": 3253,
      "Res": 3254,
      "SV": 3255,
      "Sy": 3256,
      "Simp": 3257,
      "TL": 3258,
      "Test": 3259,
      "Won": 3260,
      "Wind": 3261,
      "boo": 3262,
      "bother": 3263,
      "bill": 3264,
      "cv": 3265,
      "das": 3266,
      "double": 3267,
      "danger": 3268,
      "dirt": 3269,
      "gle": 3270,
      "gres": 3271,
      "glove": 3272,
      "ginal": 3273,
      "ian": 3274,
      "ler": 3275,
      "lay": 3276,
      "law": 3277,
      "lamp": 3278,
      "mis": 3279,
      "mand": 3280,
      "mounts": 3281,
      "ng": 3282,
      "pit": 3283,
      "ping": 3284,
      "pure": 3285,
      "ror": 3286,
      "race": 3287,
      "scar": 3288,
      "tin": 3289,
      "tit": 3290,
      "ugly": 3291,
      "thu": 3292,
      "rew": 3293,
      "reme": 3294,
      "repe": 3295,
      "return": 3296,
      "orge": 3297,
      "ata": 3298,
      "atches": 3299,
      "veling": 3300,
      "asked": 3301,
      "alone": 3302,
      "stat": 3303,
      "states": 3304,
      "rip": 3305,
      "rims": 3306,
      "heart": 3307,
      "become": 3308,
      "accom": 3309,
      "according": 3310,
      "across": 3311,
      "sec": 3312,
      "adv": 3313,
      "adill": 3314,
      "tiv": 3315,
      "bucks": 3316,
      "bulbs": 3317,
      "abil": 3318,
      "trust": 3319,
      "comfy": 3320,
      "oogle": 3321,
      "mold": 3322,
      "moving": 3323,
      "moder": 3324,
      "wash": 3325,
      "aren": 3326,
      "areas": 3327,
      "note": 3328,
      "mption": 3329,
      "contr": 3330,
      "lost": 3331,
      "spots": 3332,
      "spark": 3333,
      "quar": 3334,
      "quit": 3335,
      "greatest": 3336,
      "ups": 3337,
      "upon": 3338,
      "upid": 3339,
      "uster": 3340,
      "frust": 3341,
      "peace": 3342,
      "inds": 3343,
      "otherwise": 3344,
      "uty": 3345,
      "ends": 3346,
      "saw": 3347,
      "saving": 3348,
      "tional": 3349,
      "lugg": 3350,
      "aged": 3351,
      "offers": 3352,
      "everyday": 3353,
      "Nissans": 3354,
      "special": 3355,
      "pod": 3356,
      "crank": 3357,
      "repaired": 3358,
      "servic": 3359,
      "highways": 3360,
      "steer": 3361,
      "50K": 3362,
      "appy": 3363,
      "lowest": 3364,
      "inks": 3365,
      "travel": 3366,
      "passed": 3367,
      "istic": 3368,
      "rugged": 3369,
      "changing": 3370,
      "minutes": 3371,
      "remark": 3372,
      "complaining": 3373,
      "complained": 3374,
      "closed": 3375,
      "pleasantly": 3376,
      "helped": 3377,
      "limits": 3378,
      "norm": 3379,
      "vision": 3380,
      "called": 3381,
      "stopping": 3382,
      "capabil": 3383,
      "includes": 3384,
      "certi": 3385,
      "Really": 3386,
      "Replaced": 3387,
      "cruising": 3388,
      "impression": 3389,
      "Highly": 3390,
      "talk": 3391,
      "shopped": 3392,
      "friendly": 3393,
      "legs": 3394,
      "press": 3395,
      "improvements": 3396,
      "gallons": 3397,
      "Being": 3398,
      "Before": 3399,
      "response": 3400,
      "tainment": 3401,
      "tailgate": 3402,
      "squeak": 3403,
      "wearing": 3404,
      "dropped": 3405,
      "folding": 3406,
      "champ": 3407,
      "stays": 3408,
      "constant": 3409,
      "TOYO": 3410,
      "excited": 3411,
      "Haven": 3412,
      "noticeable": 3413,
      "Quiet": 3414,
      "SR5": 3415,
      "learned": 3416,
      "sludge": 3417,
      "approach": 3418,
      "Brakes": 3419,
      "scratches": 3420,
      "consumption": 3421,
      "provided": 3422,
      "provides": 3423,
      "lucky": 3424,
      "electronics": 3425,
      "Feel": 3426,
      "hesitation": 3427,
      "concern": 3428,
      "bottom": 3429,
      "creature": 3430,
      "latest": 3431,
      "Chry": 3432,
      "initially": 3433,
      "Problem": 3434,
      "alytic": 3435,
      "unique": 3436,
      "springs": 3437,
      "People": 3438,
      "Tech": 3439,
      "octane": 3440,
      "ergonomics": 3441,
      "chips": 3442,
      "randomly": 3443,
      "significant": 3444,
      "Celica": 3445,
      "Steering": 3446,
      "selves": 3447,
      "stranded": 3448,
      "amenities": 3449,
      "maneuver": 3450,
      "rubber": 3451,
      "instrument": 3452,
      "attached": 3453,
      "Another": 3454,
      "April": 3455,
      "Acura": 3456,
      "dangerous": 3457,
      "gressive": 3458,
      "adillac": 3459,
      "luggage": 3460,
      "TOYOTA": 3461,
      ".\"": 3462,
      "1K": 3463,
      "110": 3464,
      "140": 3465,
      "328": 3466,
      "370": 3467,
      "47": 3468,
      "4K": 3469,
      "52": 3470,
      "5L": 3471,
      "5k": 3472,
      "87": 3473,
      "900": 3474,
      "AF": 3475,
      "Am": 3476,
      "Bad": 3477,
      "Big": 3478,
      "Cadillac": 3479,
      "DX": 3480,
      "Ent": 3481,
      "ECO": 3482,
      "Hi": 3483,
      "Here": 3484,
      "Jap": 3485,
      "KE": 3486,
      "LT": 3487,
      "MO": 3488,
      "Mu": 3489,
      "Mon": 3490,
      "Must": 3491,
      "NT": 3492,
      "Ok": 3493,
      "PA": 3494,
      "Put": 3495,
      "Red": 3496,
      "Rep": 3497,
      "Ranger": 3498,
      "Ster": 3499,
      "Sun": 3500,
      "SLE": 3501,
      "Sier": 3502,
      "TS": 3503,
      "Trad": 3504,
      "Touring": 3505,
      "Wor": 3506,
      "Wow": 3507,
      "abu": 3508,
      "aff": 3509,
      "bri": 3510,
      "bles": 3511,
      "boy": 3512,
      "bits": 3513,
      "dad": 3514,
      "dur": 3515,
      "dig": 3516,
      "eo": 3517,
      "eve": 3518,
      "faction": 3519,
      "hot": 3520,
      "hil": 3521,
      "imat": 3522,
      "jer": 3523,
      "kg": 3524,
      "lf": 3525,
      "las": 3526,
      "lag": 3527,
      "nar": 3528,
      "nch": 3529,
      "nam": 3530,
      "nering": 3531,
      "oke": 3532,
      "oid": 3533,
      "oper": 3534,
      "pin": 3535,
      "por": 3536,
      "rit": 3537,
      "sched": 3538,
      "text": 3539,
      "uation": 3540,
      "v8": 3541,
      "vs": 3542,
      "vous": 3543,
      "wal": 3544,
      "wont": 3545,
      "x5": 3546,
      "xi": 3547,
      "thor": 3548,
      "thri": 3549,
      "throw": 3550,
      "independ": 3551,
      "onic": 3552,
      "reward": 3553,
      "lex": 3554,
      "arri": 3555,
      "arms": 3556,
      "ord": 3557,
      "ators": 3558,
      "vember": 3559,
      "edback": 3560,
      "ening": 3561,
      "enom": 3562,
      "alot": 3563,
      "allen": 3564,
      "stree": 3565,
      "stupid": 3566,
      "forth": 3567,
      "forced": 3568,
      "carri": 3569,
      "carpet": 3570,
      "hest": 3571,
      "ico": 3572,
      "beast": 3573,
      "section": 3574,
      "ties": 3575,
      "bunch": 3576,
      "tered": 3577,
      "defect": 3578,
      "death": 3579,
      "tras": 3580,
      "ooth": 3581,
      "kets": 3582,
      "metal": 3583,
      "net": 3584,
      "necess": 3585,
      "sibly": 3586,
      "solu": 3587,
      "feedback": 3588,
      "mag": 3589,
      "shu": 3590,
      "sue": 3591,
      "sucks": 3592,
      "sudd": 3593,
      "Those": 3594,
      "idle": 3595,
      "provide": 3596,
      "dodge": 3597,
      "perhaps": 3598,
      "early": 3599,
      "weigh": 3600,
      "ams": 3601,
      "ifold": 3602,
      "peppy": 3603,
      "smell": 3604,
      "uting": 3605,
      "thank": 3606,
      "thanks": 3607,
      "words": 3608,
      "places": 3609,
      "20k": 3610,
      "handled": 3611,
      "oughly": 3612,
      "aggressive": 3613,
      "brain": 3614,
      "somewhere": 3615,
      "coast": 3616,
      "engineering": 3617,
      "offroad": 3618,
      "appe": 3619,
      "lighting": 3620,
      "spec": 3621,
      "spect": 3622,
      "potho": 3623,
      "acted": 3624,
      "primar": 3625,
      "pricing": 3626,
      "cramp": 3627,
      "runner": 3628,
      "whatso": 3629,
      "easier": 3630,
      "manship": 3631,
      "manifold": 3632,
      "ignition": 3633,
      "Almost": 3634,
      "fire": 3635,
      "div": 3636,
      "turner": 3637,
      "30K": 3638,
      "apparent": 3639,
      "iency": 3640,
      "traveling": 3641,
      "useful": 3642,
      "speedometer": 3643,
      "matched": 3644,
      "prof": 3645,
      "accelerator": 3646,
      "accelerates": 3647,
      "November": 3648,
      "headrest": 3649,
      "inced": 3650,
      "increas": 3651,
      "incenti": 3652,
      "lasted": 3653,
      "causing": 3654,
      "imas": 3655,
      "immedi": 3656,
      "fixing": 3657,
      "click": 3658,
      "regul": 3659,
      "grow": 3660,
      "axle": 3661,
      "cornering": 3662,
      "reviewers": 3663,
      "basically": 3664,
      "factor": 3665,
      "differential": 3666,
      "amazed": 3667,
      "covers": 3668,
      "Second": 3669,
      "hoses": 3670,
      "coup": 3671,
      "amazingly": 3672,
      "depart": 3673,
      "REALLY": 3674,
      "careful": 3675,
      "sticks": 3676,
      "classic": 3677,
      "opened": 3678,
      "cruiser": 3679,
      "functional": 3680,
      "functionality": 3681,
      "shame": 3682,
      "talking": 3683,
      "shock": 3684,
      "toyotas": 3685,
      "solutely": 3686,
      "plastics": 3687,
      "hauls": 3688,
      "ANY": 3689,
      "reasonable": 3690,
      "absolute": 3691,
      "Check": 3692,
      "Cheap": 3693,
      "entertainment": 3694,
      "possibly": 3695,
      "Road": 3696,
      "Everyone": 3697,
      "beautifully": 3698,
      "appears": 3699,
      "falls": 3700,
      "fresh": 3701,
      "gripe": 3702,
      "plug": 3703,
      "maintained": 3704,
      "pulls": 3705,
      "VERY": 3706,
      "loads": 3707,
      "usual": 3708,
      "learn": 3709,
      "confidence": 3710,
      "TRU": 3711,
      "stret": 3712,
      "distances": 3713,
      "GMC": 3714,
      "efficiency": 3715,
      "grey": 3716,
      "sler": 3717,
      "sleep": 3718,
      "tends": 3719,
      "incredibly": 3720,
      "damaged": 3721,
      "Series": 3722,
      "country": 3723,
      "deliver": 3724,
      "delivery": 3725,
      "ordered": 3726,
      "concerned": 3727,
      "Getting": 3728,
      "Juke": 3729,
      "catalytic": 3730,
      "hoping": 3731,
      "comparing": 3732,
      "irtually": 3733,
      "seriously": 3734,
      "exceptional": 3735,
      "certainly": 3736,
      "BUT": 3737,
      "phenom": 3738,
      "coils": 3739,
      "bullet": 3740,
      "question": 3741,
      "rails": 3742,
      "realize": 3743,
      "Absolutely": 3744,
      "treated": 3745,
      "bearings": 3746,
      "following": 3747,
      "settings": 3748,
      "consistently": 3749,
      "4X4": 3750,
      "bench": 3751,
      "kicking": 3752,
      "Reliability": 3753,
      "besides": 3754,
      "alignment": 3755,
      "acceptable": 3756,
      "exactly": 3757,
      "cheaper": 3758,
      "diagnose": 3759,
      "DRIVE": 3760,
      "Poor": 3761,
      "Smooth": 3762,
      "defective": 3763,
      "dollars": 3764,
      "eventually": 3765,
      "obviously": 3766,
      "customers": 3767,
      "Radio": 3768,
      "mistake": 3769,
      "accurate": 3770,
      "column": 3771,
      "Recently": 3772,
      "multiple": 3773,
      "Wonder": 3774,
      "remember": 3775,
      "orgeous": 3776,
      "modern": 3777,
      "normally": 3778,
      "capabilities": 3779,
      "Feels": 3780,
      "Chrysler": 3781,
      "Entune": 3782,
      "Stereo": 3783,
      "Traded": 3784,
      "narrow": 3785,
      "streets": 3786,
      "solution": 3787,
      "sudden": 3788,
      "cramped": 3789,
      "incentives": 3790,
      "'.": 3791,
      ".(": 3792,
      "01": 3793,
      "1k": 3794,
      "240": 3795,
      "3K": 3796,
      "49": 3797,
      "4L": 3798,
      "4cyl": 3799,
      "69": 3800,
      "88": 3801,
      "Aver": 3802,
      "App": 3803,
      "Add": 3804,
      "Bay": 3805,
      "Bet": 3806,
      "Cur": 3807,
      "City": 3808,
      "Chic": 3809,
      "End": 3810,
      "Four": 3811,
      "GE": 3812,
      "GH": 3813,
      "God": 3814,
      "HU": 3815,
      "Hy": 3816,
      "Hard": 3817,
      "Kept": 3818,
      "LA": 3819,
      "Lar": 3820,
      "Let": 3821,
      "Mob": 3822,
      "March": 3823,
      "MSR": 3824,
      "MUCH": 3825,
      "MDX": 3826,
      "NY": 3827,
      "NIS": 3828,
      "Out": 3829,
      "Off": 3830,
      "Please": 3831,
      "RS": 3832,
      "Rou": 3833,
      "Rover": 3834,
      "Rem": 3835,
      "SO": 3836,
      "Sed": 3837,
      "Sound": 3838,
      "SAV": 3839,
      "Try": 3840,
      "Ul": 3841,
      "Used": 3842,
      "VD": 3843,
      "Wish": 3844,
      "WILL": 3845,
      "X1": 3846,
      "Yok": 3847,
      "bree": 3848,
      "cop": 3849,
      "cate": 3850,
      "cum": 3851,
      "camry": 3852,
      "count": 3853,
      "cute": 3854,
      "dar": 3855,
      "dget": 3856,
      "dome": 3857,
      "dry": 3858,
      "emp": 3859,
      "eper": 3860,
      "fly": 3861,
      "gro": 3862,
      "gust": 3863,
      "his": 3864,
      "hook": 3865,
      "hig": 3866,
      "ible": 3867,
      "ipod": 3868,
      "joint": 3869,
      "jeep": 3870,
      "kit": 3871,
      "mus": 3872,
      "mbly": 3873,
      "nis": 3874,
      "nal": 3875,
      "nim": 3876,
      "pi": 3877,
      "pen": 3878,
      "pill": 3879,
      "punch": 3880,
      "pkg": 3881,
      "rom": 3882,
      "sc": 3883,
      "sac": 3884,
      "send": 3885,
      "sits": 3886,
      "skid": 3887,
      "sentra": 3888,
      "tu": 3889,
      "tacoma": 3890,
      "titan": 3891,
      "touring": 3892,
      "vac": 3893,
      "virtually": 3894,
      "win": 3895,
      "wer": 3896,
      "wall": 3897,
      "za": 3898,
      "inje": 3899,
      "anced": 3900,
      "ism": 3901,
      "onto": 3902,
      "online": 3903,
      "rever": 3904,
      "reco": 3905,
      "redesign": 3906,
      "orry": 3907,
      "atic": 3908,
      "atur": 3909,
      "asse": 3910,
      "aspe": 3911,
      "aside": 3912,
      "stic": 3913,
      "stability": 3914,
      "eling": 3915,
      "wire": 3916,
      "wiring": 3917,
      "becomes": 3918,
      "seas": 3919,
      "seven": 3920,
      "separ": 3921,
      "adap": 3922,
      "advice": 3923,
      "adult": 3924,
      "chir": 3925,
      "lip": 3926,
      "defro": 3927,
      "tral": 3928,
      "comment": 3929,
      "unit": 3930,
      "unity": 3931,
      "unbelie": 3932,
      "sight": 3933,
      "mos": 3934,
      "young": 3935,
      "conserv": 3936,
      "spoil": 3937,
      "suc": 3938,
      "plate": 3939,
      "Though": 3940,
      "Three": 3941,
      "blend": 3942,
      "ilot": 3943,
      "quir": 3944,
      "among": 3945,
      "anyway": 3946,
      "aked": 3947,
      "emer": 3948,
      "word": 3949,
      "worn": 3950,
      "worried": 3951,
      "vents": 3952,
      "interface": 3953,
      "dealing": 3954,
      "code": 3955,
      "engineered": 3956,
      "mum": 3957,
      "ours": 3958,
      "teen": 3959,
      "boot": 3960,
      "needing": 3961,
      "assist": 3962,
      "buyer": 3963,
      "workmanship": 3964,
      "fuse": 3965,
      "avoid": 3966,
      "specially": 3967,
      "tribut": 3968,
      "actual": 3969,
      "cris": 3970,
      "prec": 3971,
      "ortunity": 3972,
      "chevy": 3973,
      "eased": 3974,
      "disable": 3975,
      "manager": 3976,
      "transmissions": 3977,
      "died": 3978,
      "recalled": 3979,
      "30mpg": 3980,
      "latch": 3981,
      "impact": 3982,
      "command": 3983,
      "windy": 3984,
      "match": 3985,
      "puts": 3986,
      "Nov": 3987,
      "Who": 3988,
      "tows": 3989,
      "headlight": 3990,
      "themselves": 3991,
      "pricey": 3992,
      "costing": 3993,
      "changer": 3994,
      "blown": 3995,
      "blink": 3996,
      "redu": 3997,
      "address": 3998,
      "experiences": 3999,
      "setup": 4000,
      "pleasant": 4001,
      "ollas": 4002,
      "Corvet": 4003,
      "curve": 4004,
      "credi": 4005,
      "nail": 4006,
      "fastest": 4007,
      "picked": 4008,
      "60K": 4009,
      "Note": 4010,
      "guard": 4011,
      "helps": 4012,
      "holder": 4013,
      "odd": 4014,
      "tanks": 4015,
      "pedals": 4016,
      "deploy": 4017,
      "disappointing": 4018,
      "standards": 4019,
      "Dec": 4020,
      "Definitely": 4021,
      "hitting": 4022,
      "brands": 4023,
      "ceries": 4024,
      "classy": 4025,
      "technic": 4026,
      "automatically": 4027,
      "bars": 4028,
      "Hondas": 4029,
      "Runs": 4030,
      "conditioner": 4031,
      "Otherwise": 4032,
      "convertibles": 4033,
      "searched": 4034,
      "torn": 4035,
      "originally": 4036,
      "Sports": 4037,
      "adjustable": 4038,
      "adjustment": 4039,
      "adjustments": 4040,
      "softer": 4041,
      "Suspension": 4042,
      "Rock": 4043,
      "burned": 4044,
      "mainly": 4045,
      "products": 4046,
      "fluids": 4047,
      "350Z": 4048,
      "researched": 4049,
      "missed": 4050,
      "constru": 4051,
      "satisfaction": 4052,
      "Does": 4053,
      "Heated": 4054,
      "material": 4055,
      "accidents": 4056,
      "effe": 4057,
      "harness": 4058,
      "require": 4059,
      "transfer": 4060,
      "$$$": 4061,
      "convenient": 4062,
      "conventional": 4063,
      "speaker": 4064,
      "330ci": 4065,
      "green": 4066,
      "slam": 4067,
      "thousands": 4068,
      "CAR": 4069,
      "POW": 4070,
      "Start": 4071,
      "scratch": 4072,
      "regrets": 4073,
      "Anyway": 4074,
      "Feb": 4075,
      "325i": 4076,
      "bottle": 4077,
      "blocks": 4078,
      "promised": 4079,
      "America": 4080,
      "USB": 4081,
      "Needs": 4082,
      "BUY": 4083,
      "ENT": 4084,
      "slip": 4085,
      "Rav4": 4086,
      "suggested": 4087,
      "realized": 4088,
      "cushion": 4089,
      "generation": 4090,
      "About": 4091,
      "Maybe": 4092,
      "Northern": 4093,
      "Didn": 4094,
      "compartment": 4095,
      "compartments": 4096,
      "Automatic": 4097,
      "Lux": 4098,
      "further": 4099,
      "pulled": 4100,
      "informed": 4101,
      "anese": 4102,
      "bolts": 4103,
      "describe": 4104,
      "Compared": 4105,
      "college": 4106,
      "January": 4107,
      "Vehic": 4108,
      "equipped": 4109,
      "jump": 4110,
      "convinced": 4111,
      "530i": 4112,
      "iPod": 4113,
      "opportunity": 4114,
      "sweet": 4115,
      "attractive": 4116,
      "chrome": 4117,
      "screws": 4118,
      "crossover": 4119,
      "manufacturers": 4120,
      "intermittent": 4121,
      "Simply": 4122,
      "lamps": 4123,
      "scary": 4124,
      "advant": 4125,
      "Japanese": 4126,
      "Month": 4127,
      "Mustang": 4128,
      "scheduled": 4129,
      "whatsoever": 4130,
      "apparently": 4131,
      "immediately": 4132,
      "TRUCK": 4133,
      "stretch": 4134,
      "phenomen": 4135,
      "Better": 4136,
      "Chicago": 4137,
      "MSRP": 4138,
      "Rouge": 4139,
      "Ultimate": 4140,
      "breeze": 4141,
      "groceries": 4142,
      "highest": 4143,
      "nimble": 4144,
      "recogn": 4145,
      "assembly": 4146,
      "chirping": 4147,
      "\")": 4148,
      "**": 4149,
      "-$": 4150,
      "130": 4151,
      "250": 4152,
      "3k": 4153,
      "43": 4154,
      "59": 4155,
      "62": 4156,
      "7k": 4157,
      "740": 4158,
      "745": 4159,
      "82": 4160,
      "8k": 4161,
      "8000": 4162,
      ":)": 4163,
      "A4": 4164,
      "Ad": 4165,
      "Air": 4166,
      "Bot": 4167,
      "BLE": 4168,
      "Black": 4169,
      "Benz": 4170,
      "Cr": 4171,
      "Cou": 4172,
      "Cher": 4173,
      "Crew": 4174,
      "Dash": 4175,
      "Double": 4176,
      "Edge": 4177,
      "FI": 4178,
      "Fi": 4179,
      "Fin": 4180,
      "Found": 4181,
      "Fantastic": 4182,
      "FAST": 4183,
      "Finally": 4184,
      "GA": 4185,
      "HA": 4186,
      "Hu": 4187,
      "Har": 4188,
      "Im": 4189,
      "Jag": 4190,
      "Lit": 4191,
      "Leased": 4192,
      "Maint": 4193,
      "OW": 4194,
      "PD": 4195,
      "PT": 4196,
      "Par": 4197,
      "RO": 4198,
      "Sw": 4199,
      "Sept": 4200,
      "Tot": 4201,
      "TRA": 4202,
      "UR": 4203,
      "Val": 4204,
      "Water": 4205,
      "X6": 4206,
      "XC": 4207,
      "Yet": 4208,
      "aving": 4209,
      "afr": 4210,
      "alent": 4211,
      "ahead": 4212,
      "banger": 4213,
      "cd": 4214,
      "cul": 4215,
      "cred": 4216,
      "cash": 4217,
      "den": 4218,
      "dir": 4219,
      "dust": 4220,
      "ets": 4221,
      "eats": 4222,
      "eyes": 4223,
      "fab": 4224,
      "fut": 4225,
      "flow": 4226,
      "fish": 4227,
      "fender": 4228,
      "gan": 4229,
      "gel": 4230,
      "gad": 4231,
      "gir": 4232,
      "gory": 4233,
      "gorgeous": 4234,
      "hou": 4235,
      "hun": 4236,
      "hum": 4237,
      "ial": 4238,
      "ideal": 4239,
      "ize": 4240,
      "kill": 4241,
      "la": 4242,
      "ls": 4243,
      "lks": 4244,
      "mare": 4245,
      "nes": 4246,
      "pound": 4247,
      "padd": 4248,
      "ras": 4249,
      "rare": 4250,
      "sn": 4251,
      "soo": 4252,
      "sick": 4253,
      "sorry": 4254,
      "tre": 4255,
      "tons": 4256,
      "ude": 4257,
      "utral": 4258,
      "vation": 4259,
      "valent": 4260,
      "wre": 4261,
      "ware": 4262,
      "yest": 4263,
      "zu": 4264,
      "zy": 4265,
      "zon": 4266,
      "inj": 4267,
      "ino": 4268,
      "inde": 4269,
      "ination": 4270,
      "info": 4271,
      "inflat": 4272,
      "inches": 4273,
      "ange": 4274,
      "erday": 4275,
      "error": 4276,
      "ists": 4277,
      "ongest": 4278,
      "rebuilt": 4279,
      "lets": 4280,
      "leaf": 4281,
      "leaving": 4282,
      "ork": 4283,
      "organ": 4284,
      "asso": 4285,
      "asts": 4286,
      "asking": 4287,
      "edition": 4288,
      "ense": 4289,
      "enna": 4290,
      "enthu": 4291,
      "alle": 4292,
      "stall": 4293,
      "strange": 4294,
      "stinks": 4295,
      "ric": 4296,
      "ribly": 4297,
      "hair": 4298,
      "forget": 4299,
      "owed": 4300,
      "heating": 4301,
      "ict": 4302,
      "ices": 4303,
      "wiper": 4304,
      "beach": 4305,
      "beating": 4306,
      "beats": 4307,
      "achi": 4308,
      "aches": 4309,
      "sele": 4310,
      "gem": 4311,
      "rode": 4312,
      "rocket": 4313,
      "ada": 4314,
      "ades": 4315,
      "tible": 4316,
      "bush": 4317,
      "busy": 4318,
      "bugs": 4319,
      "budget": 4320,
      "abs": 4321,
      "teries": 4322,
      "terms": 4323,
      "terrific": 4324,
      "chance": 4325,
      "lived": 4326,
      "detail": 4327,
      "unacceptable": 4328,
      "lls": 4329,
      "llision": 4330,
      "neutral": 4331,
      "silent": 4332,
      "modate": 4333,
      "outdated": 4334,
      "ception": 4335,
      "noted": 4336,
      "extras": 4337,
      "uran": 4338,
      "fear": 4339,
      "feet": 4340,
      "lop": 4341,
      "loan": 4342,
      "spir": 4343,
      "hasn": 4344,
      "suff": 4345,
      "plor": 4346,
      "plant": 4347,
      "Third": 4348,
      "ider": 4349,
      "blew": 4350,
      "illed": 4351,
      "greatly": 4352,
      "upd": 4353,
      "upper": 4354,
      "uphill": 4355,
      "user": 4356,
      "ify": 4357,
      "anytime": 4358,
      "golf": 4359,
      "engage": 4360,
      "engines": 4361,
      "ems": 4362,
      "200K": 4363,
      "powertrain": 4364,
      "ette": 4365,
      "ational": 4366,
      "backup": 4367,
      "interval": 4368,
      "handy": 4369,
      "ardless": 4370,
      "aging": 4371,
      "coat": 4372,
      "collision": 4373,
      "comprom": 4374,
      "chassis": 4375,
      "foam": 4376,
      "folks": 4377,
      "daytime": 4378,
      "buyers": 4379,
      "icker": 4380,
      "transport": 4381,
      "aps": 4382,
      "aval": 4383,
      "doesnt": 4384,
      "post": 4385,
      "tries": 4386,
      "downs": 4387,
      "crappy": 4388,
      "performing": 4389,
      "wanting": 4390,
      "Incredi": 4391,
      "disc": 4392,
      "dissa": 4393,
      "tops": 4394,
      "direct": 4395,
      "direction": 4396,
      "happens": 4397,
      "ums": 4398,
      "umbs": 4399,
      "commuting": 4400,
      "leasing": 4401,
      "mats": 4402,
      "finan": 4403,
      "foreign": 4404,
      "headliner": 4405,
      "reads": 4406,
      "ratings": 4407,
      "hardly": 4408,
      "knows": 4409,
      "extend": 4410,
      "LED": 4411,
      "keeps": 4412,
      "grab": 4413,
      "grown": 4414,
      "packs": 4415,
      "packages": 4416,
      "shifter": 4417,
      "closer": 4418,
      "situation": 4419,
      "Corp": 4420,
      "curves": 4421,
      "mechanics": 4422,
      "........": 4423,
      "appointment": 4424,
      "batteries": 4425,
      "nervous": 4426,
      "Maximas": 4427,
      "sensitive": 4428,
      "expense": 4429,
      "north": 4430,
      "Seems": 4431,
      "holding": 4432,
      "hoe": 4433,
      "visor": 4434,
      "visits": 4435,
      "Driver": 4436,
      "Prior": 4437,
      "odometer": 4438,
      "disappointment": 4439,
      "fficient": 4440,
      "carefully": 4441,
      "1993": 4442,
      "sticking": 4443,
      "opening": 4444,
      "Wife": 4445,
      "flash": 4446,
      "impress": 4447,
      "Loved": 4448,
      "tells": 4449,
      "telling": 4450,
      "shaking": 4451,
      "talked": 4452,
      "severe": 4453,
      "rently": 4454,
      "legroom": 4455,
      "70k": 4456,
      "ACH": 4457,
      "instantly": 4458,
      "conditioning": 4459,
      "levels": 4460,
      "Without": 4461,
      "reasonably": 4462,
      "Exterior": 4463,
      "glare": 4464,
      "winters": 4465,
      "August": 4466,
      "sheer": 4467,
      "Been": 4468,
      "Chev": 4469,
      "ITY": 4470,
      "affect": 4471,
      "failing": 4472,
      "tained": 4473,
      "Suburban": 4474,
      "nightmare": 4475,
      "suppose": 4476,
      "mounted": 4477,
      "burn": 4478,
      "temps": 4479,
      "pushing": 4480,
      "clearly": 4481,
      "filling": 4482,
      "personal": 4483,
      "personally": 4484,
      "nicer": 4485,
      "switching": 4486,
      "switched": 4487,
      "Head": 4488,
      "blowing": 4489,
      "excuse": 4490,
      "plugs": 4491,
      "Perfect": 4492,
      "calls": 4493,
      "yeah": 4494,
      "learning": 4495,
      "Today": 4496,
      "Cost": 4497,
      "Leg": 4498,
      "Leather": 4499,
      "gauges": 4500,
      "continued": 4501,
      "connect": 4502,
      "balanced": 4503,
      "climb": 4504,
      "Consider": 4505,
      "occasional": 4506,
      "comparable": 4507,
      "Turns": 4508,
      "Germany": 4509,
      "slide": 4510,
      "indicator": 4511,
      "Navigation": 4512,
      "initial": 4513,
      "generally": 4514,
      "Lastly": 4515,
      "Passeng": 4516,
      "WAY": 4517,
      "refle": 4518,
      "resulting": 4519,
      "bearing": 4520,
      "consistent": 4521,
      "Buick": 4522,
      "Should": 4523,
      "zzy": 4524,
      "honda": 4525,
      "message": 4526,
      "critic": 4527,
      "335i": 4528,
      "Safe": 4529,
      "rav4": 4530,
      "ski": 4531,
      "correctly": 4532,
      "beginning": 4533,
      "Tahoe": 4534,
      "messa": 4535,
      "potential": 4536,
      "developed": 4537,
      "modified": 4538,
      "platinum": 4539,
      "interested": 4540,
      "exceeded": 4541,
      "Regardless": 4542,
      "Silverado": 4543,
      "540i": 4544,
      "System": 4545,
      "layout": 4546,
      "title": 4547,
      "accommodate": 4548,
      "secure": 4549,
      "frustrating": 4550,
      "remarkable": 4551,
      "impressions": 4552,
      "approaching": 4553,
      "Much": 4554,
      "affair": 4555,
      "porate": 4556,
      "thoroughly": 4557,
      "independent": 4558,
      "necessary": 4559,
      "brainer": 4560,
      "appeared": 4561,
      "potholes": 4562,
      "primarily": 4563,
      "clicking": 4564,
      "regulator": 4565,
      "Wonderful": 4566,
      "Currently": 4567,
      "Sedan": 4568,
      "category": 4569,
      "sacrif": 4570,
      "weren": 4571,
      "season": 4572,
      "conservative": 4573,
      "spoiler": 4574,
      "success": 4575,
      "construction": 4576,
      "POWER": 4577,
      "advantage": 4578,
      "phenomenal": 4579,
      "Bottom": 4580,
      "Cheroke": 4581,
      "afraid": 4582,
      "credit": 4583,
      "girl": 4584,
      "house": 4585,
      "yesterday": 4586,
      "indeed": 4587,
      "associ": 4588,
      "enthusi": 4589,
      "\").": 4590,
      ")...": 4591,
      ".).": 4592,
      "0L": 4593,
      "125": 4594,
      "115": 4595,
      "230": 4596,
      "210": 4597,
      "235": 4598,
      "32000": 4599,
      "323": 4600,
      "44": 4601,
      "430": 4602,
      "535": 4603,
      "63": 4604,
      "68": 4605,
      "6th": 4606,
      "6ft": 4607,
      "72": 4608,
      "9000": 4609,
      ":-": 4610,
      "?)": 4611,
      "?).": 4612,
      "AM": 4613,
      "Ama": 4614,
      "ARE": 4615,
      "AMG": 4616,
      "BI": 4617,
      "Bl": 4618,
      "Bat": 4619,
      "Brid": 4620,
      "BAD": 4621,
      "CX": 4622,
      "Cu": 4623,
      "Cer": 4624,
      "Coo": 4625,
      "Cany": 4626,
      "Cont": 4627,
      "Called": 4628,
      "Di": 4629,
      "Dun": 4630,
      "DVD": 4631,
      "EC": 4632,
      "Ever": 4633,
      "Eco": 4634,
      "Ext": 4635,
      "EED": 4636,
      "FT": 4637,
      "FU": 4638,
      "Fo": 4639,
      "G35": 4640,
      "Google": 4641,
      "Ho": 4642,
      "IC": 4643,
      "II": 4644,
      "Ive": 4645,
      "Imp": 4646,
      "Ima": 4647,
      "Isu": 4648,
      "Keep": 4649,
      "LC": 4650,
      "Lo": 4651,
      "Long": 4652,
      "LAST": 4653,
      "M6": 4654,
      "Me": 4655,
      "Man": 4656,
      "Mil": 4657,
      "Machine": 4658,
      "NI": 4659,
      "Or": 4660,
      "Oct": 4661,
      "Oreg": 4662,
      "Pick": 4663,
      "Pilot": 4664,
      "Right": 4665,
      "RFT": 4666,
      "SA": 4667,
      "Son": 4668,
      "Sur": 4669,
      "Snow": 4670,
      "Sure": 4671,
      "Sum": 4672,
      "Spr": 4673,
      "Select": 4674,
      "SAN": 4675,
      "SPO": 4676,
      "TT": 4677,
      "TW": 4678,
      "Tr": 4679,
      "Tor": 4680,
      "Too": 4681,
      "TIT": 4682,
      "Trail": 4683,
      "Trac": 4684,
      "UPD": 4685,
      "VA": 4686,
      "Vi": 4687,
      "Vis": 4688,
      "Vit": 4689,
      "WH": 4690,
      "WY": 4691,
      "Want": 4692,
      "Wran": 4693,
      "XLS": 4694,
      "aft": 4695,
      "auty": 4696,
      "bon": 4697,
      "bone": 4698,
      "bass": 4699,
      "cow": 4700,
      "cent": 4701,
      "cir": 4702,
      "dra": 4703,
      "duty": 4704,
      "eter": 4705,
      "echo": 4706,
      "fat": 4707,
      "fing": 4708,
      "fely": 4709,
      "flip": 4710,
      "gin": 4711,
      "gent": 4712,
      "gment": 4713,
      "gland": 4714,
      "google": 4715,
      "hose": 4716,
      "hated": 4717,
      "km": 4718,
      "lity": 4719,
      "lled": 4720,
      "laid": 4721,
      "lanes": 4722,
      "luster": 4723,
      "mac": 4724,
      "mur": 4725,
      "miser": 4726,
      "national": 4727,
      "oiled": 4728,
      "pat": 4729,
      "prep": 4730,
      "pors": 4731,
      "pite": 4732,
      "ports": 4733,
      "ration": 4734,
      "rank": 4735,
      "sou": 4736,
      "sad": 4737,
      "smi": 4738,
      "shad": 4739,
      "sco": 4740,
      "stoo": 4741,
      "sort": 4742,
      "site": 4743,
      "scare": 4744,
      "tv": 4745,
      "tes": 4746,
      "tad": 4747,
      "tun": 4748,
      "tone": 4749,
      "tag": 4750,
      "uitive": 4751,
      "vd": 4752,
      "wax": 4753,
      "xB": 4754,
      "xy": 4755,
      "zi": 4756,
      "zip": 4757,
      "thick": 4758,
      "thumbs": 4759,
      "ining": 4760,
      "inline": 4761,
      "inconvenient": 4762,
      "ann": 4763,
      "theast": 4764,
      "theless": 4765,
      "ishes": 4766,
      "rely": 4767,
      "rebat": 4768,
      "refuse": 4769,
      "lean": 4770,
      "leading": 4771,
      "ara": 4772,
      "ari": 4773,
      "arily": 4774,
      "ora": 4775,
      "attribut": 4776,
      "itor": 4777,
      "itches": 4778,
      "oust": 4779,
      "assu": 4780,
      "tomor": 4781,
      "ingly": 4782,
      "edy": 4783,
      "encoun": 4784,
      "aling": 4785,
      "alarm": 4786,
      "strain": 4787,
      "rier": 4788,
      "haft": 4789,
      "versat": 4790,
      "vertible": 4791,
      "ofer": 4792,
      "offe": 4793,
      "cart": 4794,
      "icular": 4795,
      "ession": 4796,
      "beam": 4797,
      "ache": 4798,
      "acter": 4799,
      "acts": 4800,
      "activ": 4801,
      "secur": 4802,
      "seals": 4803,
      "roar": 4804,
      "rolet": 4805,
      "tified": 4806,
      "buz": 4807,
      "bucket": 4808,
      "bubble": 4809,
      "buzzy": 4810,
      "terribly": 4811,
      "challen": 4812,
      "lied": 4813,
      "lighter": 4814,
      "likes": 4815,
      "dear": 4816,
      "deter": 4817,
      "dete": 4818,
      "deta": 4819,
      "degre": 4820,
      "demand": 4821,
      "trad": 4822,
      "trading": 4823,
      "unda": 4824,
      "unsto": 4825,
      "unfortunately": 4826,
      "whis": 4827,
      "whining": 4828,
      "mem": 4829,
      "meet": 4830,
      "metic": 4831,
      "metall": 4832,
      "neat": 4833,
      "mother": 4834,
      "moved": 4835,
      "moves": 4836,
      "exist": 4837,
      "explain": 4838,
      "exces": 4839,
      "excus": 4840,
      "example": 4841,
      "exhil": 4842,
      "fection": 4843,
      "mping": 4844,
      "hadn": 4845,
      "lose": 4846,
      "loving": 4847,
      "ckle": 4848,
      "split": 4849,
      "spoiled": 4850,
      "ental": 4851,
      "map": 4852,
      "driveway": 4853,
      "irrit": 4854,
      "shot": 4855,
      "shim": 4856,
      "suburban": 4857,
      "sufficient": 4858,
      "Things": 4859,
      "idles": 4860,
      "idently": 4861,
      "prox": 4862,
      "probs": 4863,
      "process": 4864,
      "frontier": 4865,
      "iful": 4866,
      "pep": 4867,
      "pest": 4868,
      "ulate": 4869,
      "ultra": 4870,
      "resent": 4871,
      "ppable": 4872,
      "igan": 4873,
      "problematic": 4874,
      "uted": 4875,
      "hip": 4876,
      "aud": 4877,
      "ctors": 4878,
      "saver": 4879,
      "saves": 4880,
      "safely": 4881,
      "200k": 4882,
      "placement": 4883,
      "opt": 4884,
      "justify": 4885,
      "backing": 4886,
      "internal": 4887,
      "highland": 4888,
      "roading": 4889,
      "agging": 4890,
      "inte": 4891,
      "intention": 4892,
      "intuitive": 4893,
      "codes": 4894,
      "offering": 4895,
      "team": 4896,
      "boots": 4897,
      "airbag": 4898,
      "deser": 4899,
      "despite": 4900,
      "tled": 4901,
      "monster": 4902,
      "BMWs": 4903,
      "interiors": 4904,
      "via": 4905,
      "therefore": 4906,
      "popped": 4907,
      "popping": 4908,
      "pocket": 4909,
      "farm": 4910,
      "craft": 4911,
      "repaint": 4912,
      "lessly": 4913,
      "preven": 4914,
      "twin": 4915,
      "content": 4916,
      "contacted": 4917,
      "Inside": 4918,
      "disappear": 4919,
      "steel": 4920,
      "warran": 4921,
      "field": 4922,
      "dim": 4923,
      "record": 4924,
      "impro": 4925,
      "awd": 4926,
      "quieter": 4927,
      "winds": 4928,
      "matrix": 4929,
      "prisingly": 4930,
      "raised": 4931,
      "10K": 4932,
      "passes": 4933,
      "itionally": 4934,
      "Where": 4935,
      "ledge": 4936,
      "headroom": 4937,
      "headache": 4938,
      "inclines": 4939,
      "rates": 4940,
      "ratio": 4941,
      "views": 4942,
      "imate": 4943,
      "snowy": 4944,
      "LENT": 4945,
      "testing": 4946,
      "cluster": 4947,
      "estimate": 4948,
      "wherever": 4949,
      "parti": 4950,
      "blame": 4951,
      "quietly": 4952,
      "corner": 4953,
      "corporate": 4954,
      "surge": 4955,
      "surpassed": 4956,
      "adds": 4957,
      "adding": 4958,
      "experiencing": 4959,
      "35K": 4960,
      "3500": 4961,
      "reviewed": 4962,
      "expi": 4963,
      "dynam": 4964,
      "clock": 4965,
      "closing": 4966,
      "settled": 4967,
      "dealerships": 4968,
      "100mph": 4969,
      "Corollas": 4970,
      "mechanism": 4971,
      "......": 4972,
      "enjoying": 4973,
      "driveshaft": 4974,
      "appointed": 4975,
      "sensing": 4976,
      "convert": 4977,
      "kidding": 4978,
      "mark": 4979,
      "marks": 4980,
      "marginal": 4981,
      "famili": 4982,
      "175": 4983,
      "17mpg": 4984,
      "1800": 4985,
      "hole": 4986,
      "holes": 4987,
      "motors": 4988,
      "vised": 4989,
      "choices": 4990,
      "brother": 4991,
      "worthless": 4992,
      "paper": 4993,
      "pathetic": 4994,
      "swear": 4995,
      "store": 4996,
      "sunlight": 4997,
      "sunglass": 4998,
      "pedition": 4999,
      "1600": 5000,
      "REME": 5001,
      "RELI": 5002,
      "caps": 5003,
      "capability": 5004,
      "pumps": 5005,
      "1994": 5006,
      "1995": 5007,
      "hitch": 5008,
      "solve": 5009,
      "Read": 5010,
      "casset": 5011,
      "frills": 5012,
      "locking": 5013,
      "locked": 5014,
      "dual": 5015,
      "dull": 5016,
      "quicker": 5017,
      "functions": 5018,
      "barrier": 5019,
      "share": 5020,
      "shade": 5021,
      "elsewhere": 5022,
      "honest": 5023,
      "breaking": 5024,
      "hugs": 5025,
      "particular": 5026,
      "hauler": 5027,
      "waited": 5028,
      "gestone": 5029,
      "keys": 5030,
      "LOT": 5031,
      "showing": 5032,
      "showed": 5033,
      "depends": 5034,
      "Exception": 5035,
      "Explor": 5036,
      "Expedition": 5037,
      "hybrids": 5038,
      "rote": 5039,
      "rotations": 5040,
      "wonderfully": 5041,
      "THING": 5042,
      "gler": 5043,
      "shifted": 5044,
      "adjusted": 5045,
      "character": 5046,
      "lifetime": 5047,
      "responsi": 5048,
      "failures": 5049,
      "45K": 5050,
      "Such": 5051,
      "suppor": 5052,
      "300K": 5053,
      "burning": 5054,
      "averages": 5055,
      "Highlanders": 5056,
      "customi": 5057,
      "originals": 5058,
      "Sometimes": 5059,
      "rains": 5060,
      "England": 5061,
      "drops": 5062,
      "medio": 5063,
      "boards": 5064,
      "removable": 5065,
      "350z": 5066,
      "angle": 5067,
      "researching": 5068,
      "missing": 5069,
      "slowly": 5070,
      "minimum": 5071,
      "150K": 5072,
      "filled": 5073,
      "tedly": 5074,
      "wore": 5075,
      "woofer": 5076,
      "wrap": 5077,
      "writing": 5078,
      "guys": 5079,
      "Unlike": 5080,
      "grill": 5081,
      "grips": 5082,
      "grades": 5083,
      "leaked": 5084,
      "Door": 5085,
      "listen": 5086,
      "excit": 5087,
      "hopefully": 5088,
      "calling": 5089,
      "harder": 5090,
      "noticeably": 5091,
      "Looking": 5092,
      "confir": 5093,
      "confident": 5094,
      "confusing": 5095,
      "Handles": 5096,
      "gency": 5097,
      "kinda": 5098,
      "weekends": 5099,
      "330i": 5100,
      "Brake": 5101,
      "flaws": 5102,
      "connection": 5103,
      "vibrating": 5104,
      "Star": 5105,
      "spending": 5106,
      "lumbar": 5107,
      "types": 5108,
      "delivers": 5109,
      "Anyone": 5110,
      "Convertible": 5111,
      "fancy": 5112,
      "reception": 5113,
      "hesitant": 5114,
      "hesitate": 5115,
      "manufacture": 5116,
      "investment": 5117,
      "ABLE": 5118,
      "comparably": 5119,
      "panels": 5120,
      "???": 5121,
      "Escal": 5122,
      "leys": 5123,
      "began": 5124,
      "salesman": 5125,
      "Needless": 5126,
      "mmmm": 5127,
      "aska": 5128,
      "indicating": 5129,
      "camper": 5130,
      "minivans": 5131,
      "Michigan": 5132,
      "bikes": 5133,
      "pieces": 5134,
      "questions": 5135,
      "malfunctioning": 5136,
      "cushy": 5137,
      "cushions": 5138,
      "North": 5139,
      "Passing": 5140,
      "WAS": 5141,
      "refuses": 5142,
      "results": 5143,
      "followed": 5144,
      "Buy": 5145,
      "Issue": 5146,
      "Short": 5147,
      "regardless": 5148,
      "BEST": 5149,
      "Luck": 5150,
      "beside": 5151,
      "honor": 5152,
      "races": 5153,
      "information": 5154,
      "silky": 5155,
      "critical": 5156,
      "cheapest": 5157,
      "protection": 5158,
      "Compare": 5159,
      "DIY": 5160,
      "Tire": 5161,
      "Vegas": 5162,
      "equivalent": 5163,
      "moment": 5164,
      "carrying": 5165,
      "chipped": 5166,
      "chipping": 5167,
      "destination": 5168,
      "knocking": 5169,
      "SPEED": 5170,
      "clubs": 5171,
      "hype": 5172,
      "strut": 5173,
      "develop": 5174,
      "claims": 5175,
      "Regular": 5176,
      "drawback": 5177,
      "Base": 5178,
      "boost": 5179,
      "booster": 5180,
      "cvt": 5181,
      "tiny": 5182,
      "repeat": 5183,
      "status": 5184,
      "contract": 5185,
      "savings": 5186,
      "servicing": 5187,
      "services": 5188,
      "Sierra": 5189,
      "Worst": 5190,
      "abuse": 5191,
      "operation": 5192,
      "thrill": 5193,
      "lexus": 5194,
      "headrests": 5195,
      "coupled": 5196,
      "department": 5197,
      "delivered": 5198,
      "narrowed": 5199,
      "Additionally": 5200,
      "HUGE": 5201,
      "Hyunda": 5202,
      "Large": 5203,
      "NISSAN": 5204,
      "cumber": 5205,
      "darn": 5206,
      "empty": 5207,
      "music": 5208,
      "pipe": 5209,
      "penny": 5210,
      "pillars": 5211,
      "scared": 5212,
      "vacation": 5213,
      "winner": 5214,
      "reverse": 5215,
      "aturally": 5216,
      "aspects": 5217,
      "separate": 5218,
      "defrost": 5219,
      "unbelievable": 5220,
      "emergency": 5221,
      "crisis": 5222,
      "Corvette": 5223,
      "technician": 5224,
      "Vehicle": 5225,
      "Coupe": 5226,
      "Harley": 5227,
      "Total": 5228,
      "XC90": 5229,
      "dirty": 5230,
      "fabric": 5231,
      "future": 5232,
      "paddle": 5233,
      "wreck": 5234,
      "organi": 5235,
      "achieve": 5236,
      "bushings": 5237,
      "updates": 5238,
      "compromise": 5239,
      "transportation": 5240,
      "avalon": 5241,
      "Incredible": 5242,
      "financing": 5243,
      "Chevrolet": 5244,
      "Passenger": 5245,
      "messages": 5246,
      "Cherokee": 5247,
      "associated": 5248,
      "Battery": 5249,
      "Bridgestone": 5250,
      "Cube": 5251,
      "Certified": 5252,
      "Imagine": 5253,
      "Isuzu": 5254,
      "Oregon": 5255,
      "TITAN": 5256,
      "UPDAT": 5257,
      "Visibility": 5258,
      "Vitara": 5259,
      "Wrangler": 5260,
      "bonus": 5261,
      "cowork": 5262,
      "smiling": 5263,
      "rebates": 5264,
      "tomorrow": 5265,
      "offee": 5266,
      "detailed": 5267,
      "degrees": 5268,
      "unstoppable": 5269,
      "metallic": 5270,
      "excessive": 5271,
      "REMELY": 5272,
      "Exceptional": 5273,
      "mediocre": 5274,
      "Hyundai": 5275,
      "!).": 5276,
      "\"...": 5277,
      "++": 5278,
      "/-": 5279,
      "160": 5280,
      "2k": 5281,
      "220": 5282,
      "215": 5283,
      "2WD": 5284,
      "340": 5285,
      "390": 5286,
      "4runner": 5287,
      "54": 5288,
      "57": 5289,
      "58": 5290,
      "5S": 5291,
      "550": 5292,
      "6000": 5293,
      "71": 5294,
      "77": 5295,
      "78": 5296,
      "7L": 5297,
      "7000": 5298,
      "81": 5299,
      "86": 5300,
      "8K": 5301,
      "8s": 5302,
      "91": 5303,
      "93": 5304,
      ":(": 5305,
      "AH": 5306,
      "AJ": 5307,
      "AR": 5308,
      "AZ": 5309,
      "Av": 5310,
      "Ari": 5311,
      "Act": 5312,
      "Aside": 5313,
      "AGA": 5314,
      "BB": 5315,
      "BO": 5316,
      "Bri": 5317,
      "Bes": 5318,
      "Bul": 5319,
      "Bew": 5320,
      "BRA": 5321,
      "CI": 5322,
      "CL": 5323,
      "Cl": 5324,
      "Cus": 5325,
      "CAN": 5326,
      "CON": 5327,
      "Char": 5328,
      "Clear": 5329,
      "Dat": 5330,
      "Den": 5331,
      "Day": 5332,
      "Dep": 5333,
      "Dont": 5334,
      "Dies": 5335,
      "DRA": 5336,
      "Desp": 5337,
      "Duran": 5338,
      "EW": 5339,
      "Er": 5340,
      "Ele": 5341,
      "Econom": 5342,
      "Either": 5343,
      "E39": 5344,
      "EPA": 5345,
      "Especially": 5346,
      "EACH": 5347,
      "FE": 5348,
      "FL": 5349,
      "Fer": 5350,
      "Fast": 5351,
      "Fort": 5352,
      "FRE": 5353,
      "Fos": 5354,
      "F150": 5355,
      "FOR": 5356,
      "GX": 5357,
      "Gl": 5358,
      "His": 5359,
      "Hone": 5360,
      "HWY": 5361,
      "Houst": 5362,
      "IF": 5363,
      "IVE": 5364,
      "ION": 5365,
      "Jer": 5366,
      "KS": 5367,
      "Ke": 5368,
      "King": 5369,
      "LX": 5370,
      "Lin": 5371,
      "Los": 5372,
      "LLENT": 5373,
      "MB": 5374,
      "MI": 5375,
      "ML": 5376,
      "MY": 5377,
      "Ma": 5378,
      "Mex": 5379,
      "Mid": 5380,
      "Met": 5381,
      "MON": 5382,
      "MAJ": 5383,
      "NJ": 5384,
      "Nis": 5385,
      "Neither": 5386,
      "NEW": 5387,
      "OD": 5388,
      "OF": 5389,
      "Oc": 5390,
      "Op": 5391,
      "Ori": 5392,
      "Orange": 5393,
      "PE": 5394,
      "Pi": 5395,
      "Pu": 5396,
      "PRO": 5397,
      "PLAST": 5398,
      "Prote": 5399,
      "QU": 5400,
      "RN": 5401,
      "Range": 5402,
      "SM": 5403,
      "SY": 5404,
      "Sc": 5405,
      "Si": 5406,
      "San": 5407,
      "Sto": 5408,
      "Sha": 5409,
      "Sty": 5410,
      "Sens": 5411,
      "Shel": 5412,
      "Sho": 5413,
      "Same": 5414,
      "TV": 5415,
      "Ty": 5416,
      "Tou": 5417,
      "Tom": 5418,
      "Takes": 5419,
      "TREMELY": 5420,
      "UT": 5421,
      "UST": 5422,
      "Vette": 5423,
      "WE": 5424,
      "War": 5425,
      "Whe": 5426,
      "Went": 5427,
      "Watch": 5428,
      "XM": 5429,
      "Ye": 5430,
      "Yu": 5431,
      "YES": 5432,
      "YEA": 5433,
      "ZER": 5434,
      "awhile": 5435,
      "bay": 5436,
      "bir": 5437,
      "bid": 5438,
      "bage": 5439,
      "blog": 5440,
      "bcaps": 5441,
      "cake": 5442,
      "clat": 5443,
      "cents": 5444,
      "ctiv": 5445,
      "dam": 5446,
      "dder": 5447,
      "dip": 5448,
      "dread": 5449,
      "dark": 5450,
      "dents": 5451,
      "dvd": 5452,
      "eat": 5453,
      "ect": 5454,
      "eco": 5455,
      "eight": 5456,
      "efit": 5457,
      "fed": 5458,
      "fes": 5459,
      "flim": 5460,
      "fence": 5461,
      "flog": 5462,
      "fwy": 5463,
      "fwd": 5464,
      "fallen": 5465,
      "gy": 5466,
      "gth": 5467,
      "gid": 5468,
      "gently": 5469,
      "greas": 5470,
      "glue": 5471,
      "game": 5472,
      "hr": 5473,
      "ht": 5474,
      "hits": 5475,
      "hund": 5476,
      "ith": 5477,
      "ili": 5478,
      "iles": 5479,
      "ium": 5480,
      "iest": 5481,
      "izes": 5482,
      "jar": 5483,
      "jet": 5484,
      "jour": 5485,
      "kon": 5486,
      "kms": 5487,
      "killed": 5488,
      "lt": 5489,
      "lic": 5490,
      "lab": 5491,
      "lli": 5492,
      "longest": 5493,
      "ml": 5494,
      "ming": 5495,
      "men": 5496,
      "mel": 5497,
      "nit": 5498,
      "naturally": 5499,
      "o2": 5500,
      "ore": 5501,
      "oha": 5502,
      "oline": 5503,
      "pir": 5504,
      "ppl": 5505,
      "pig": 5506,
      "rs": 5507,
      "rag": 5508,
      "rap": 5509,
      "rari": 5510,
      "sal": 5511,
      "squ": 5512,
      "sway": 5513,
      "song": 5514,
      "sour": 5515,
      "sink": 5516,
      "sane": 5517,
      "sender": 5518,
      "tan": 5519,
      "tly": 5520,
      "tles": 5521,
      "twe": 5522,
      "tint": 5523,
      "tread": 5524,
      "tax": 5525,
      "tune": 5526,
      "ule": 5527,
      "udo": 5528,
      "wks": 5529,
      "xle": 5530,
      "xdrive": 5531,
      "xterra": 5532,
      "zone": 5533,
      "zones": 5534,
      "😍😍": 5535,
      "thday": 5536,
      "insp": 5537,
      "inno": 5538,
      "input": 5539,
      "insul": 5540,
      "infrequent": 5541,
      "invol": 5542,
      "inspect": 5543,
      "ero": 5544,
      "erve": 5545,
      "eras": 5546,
      "ony": 5547,
      "onsive": 5548,
      "onboard": 5549,
      "reality": 5550,
      "reset": 5551,
      "release": 5552,
      "rebuild": 5553,
      "reprodu": 5554,
      "resolution": 5555,
      "andora": 5556,
      "orious": 5557,
      "orary": 5558,
      "orient": 5559,
      "ords": 5560,
      "ital": 5561,
      "ites": 5562,
      "itude": 5563,
      "oud": 5564,
      "outr": 5565,
      "asha": 5566,
      "tomer": 5567,
      "ensive": 5568,
      "ency": 5569,
      "envy": 5570,
      "stro": 5571,
      "stun": 5572,
      "stare": 5573,
      "stur": 5574,
      "stance": 5575,
      "stations": 5576,
      "stream": 5577,
      "stress": 5578,
      "hauled": 5579,
      "habits": 5580,
      "omy": 5581,
      "forums": 5582,
      "ows": 5583,
      "owing": 5584,
      "elding": 5585,
      "oted": 5586,
      "hey": 5587,
      "heck": 5588,
      "heater": 5589,
      "icing": 5590,
      "icial": 5591,
      "wild": 5592,
      "wider": 5593,
      "beware": 5594,
      "beauty": 5595,
      "acy": 5596,
      "accel": 5597,
      "acting": 5598,
      "acces": 5599,
      "accusto": 5600,
      "accord": 5601,
      "seam": 5602,
      "segment": 5603,
      "rod": 5604,
      "rop": 5605,
      "roy": 5606,
      "rods": 5607,
      "ropract": 5608,
      "advised": 5609,
      "tier": 5610,
      "tied": 5611,
      "tighter": 5612,
      "tering": 5613,
      "terparts": 5614,
      "cher": 5615,
      "choo": 5616,
      "lier": 5617,
      "living": 5618,
      "def": 5619,
      "demo": 5620,
      "deck": 5621,
      "demon": 5622,
      "deceler": 5623,
      "deterior": 5624,
      "deflat": 5625,
      "deaf": 5626,
      "compe": 5627,
      "unate": 5628,
      "unreliable": 5629,
      "unsafe": 5630,
      "unexpected": 5631,
      "unmatched": 5632,
      "keeper": 5633,
      "whine": 5634,
      "whate": 5635,
      "whim": 5636,
      "meas": 5637,
      "meant": 5638,
      "ney": 5639,
      "nest": 5640,
      "nets": 5641,
      "neigh": 5642,
      "modu": 5643,
      "mods": 5644,
      "butter": 5645,
      "outweigh": 5646,
      "outlets": 5647,
      "washer": 5648,
      "wasted": 5649,
      "allic": 5650,
      "notch": 5651,
      "notorious": 5652,
      "exit": 5653,
      "urch": 5654,
      "urus": 5655,
      "lol": 5656,
      "losing": 5657,
      "cked": 5658,
      "spin": 5659,
      "spac": 5660,
      "novel": 5661,
      "magn": 5662,
      "driveability": 5663,
      "shed": 5664,
      "shelf": 5665,
      "shines": 5666,
      "sus": 5667,
      "plic": 5668,
      "Thought": 5669,
      "owns": 5670,
      "iling": 5671,
      "pros": 5672,
      "proje": 5673,
      "permis": 5674,
      "perfection": 5675,
      "ageous": 5676,
      "acking": 5677,
      "upkeep": 5678,
      "upshift": 5679,
      "amar": 5680,
      "amic": 5681,
      "ames": 5682,
      "ushes": 5683,
      "peeling": 5684,
      "anta": 5685,
      "antic": 5686,
      "antenna": 5687,
      "ultim": 5688,
      "sment": 5689,
      "smells": 5690,
      "reser": 5691,
      "anymore": 5692,
      "anybody": 5693,
      "vehicule": 5694,
      "igno": 5695,
      "astly": 5696,
      "overs": 5697,
      "overly": 5698,
      "overpriced": 5699,
      "fortunate": 5700,
      "seater": 5701,
      "seated": 5702,
      "aky": 5703,
      "him": 5704,
      "engin": 5705,
      "auction": 5706,
      "thanol": 5707,
      "ending": 5708,
      "ember": 5709,
      "embar": 5710,
      "Toyo": 5711,
      "illum": 5712,
      "goodness": 5713,
      "opens": 5714,
      "gasoline": 5715,
      "venza": 5716,
      "intersection": 5717,
      "handsome": 5718,
      "dered": 5719,
      "agile": 5720,
      "brag": 5721,
      "bruary": 5722,
      "celic": 5723,
      "wells": 5724,
      "compat": 5725,
      "tec": 5726,
      "tele": 5727,
      "tool": 5728,
      "bored": 5729,
      "boasts": 5730,
      "fob": 5731,
      "ously": 5732,
      "purchases": 5733,
      "daylight": 5734,
      "lite": 5735,
      "monitor": 5736,
      "length": 5737,
      "eps": 5738,
      "speaking": 5739,
      "downhill": 5740,
      "downshift": 5741,
      "actical": 5742,
      "prius": 5743,
      "crow": 5744,
      "reps": 5745,
      "represent": 5746,
      "caught": 5747,
      "caution": 5748,
      "preform": 5749,
      "premat": 5750,
      "pregn": 5751,
      "prevent": 5752,
      "contact": 5753,
      "contacts": 5754,
      "delight": 5755,
      "iphone": 5756,
      "cheated": 5757,
      "Indi": 5758,
      "Initi": 5759,
      "roomier": 5760,
      "roominess": 5761,
      "dislike": 5762,
      "distri": 5763,
      "discovered": 5764,
      "whether": 5765,
      "manner": 5766,
      "manners": 5767,
      "warms": 5768,
      "50MPH": 5769,
      "Alaska": 5770,
      "faults": 5771,
      "fies": 5772,
      "die": 5773,
      "dial": 5774,
      "dials": 5775,
      "records": 5776,
      "applied": 5777,
      "lated": 5778,
      "radar": 5779,
      "ummy": 5780,
      "speeding": 5781,
      "quibble": 5782,
      "undercarri": 5783,
      "commutes": 5784,
      "maintan": 5785,
      "matters": 5786,
      "prone": 5787,
      "104": 5788,
      "10k": 5789,
      "belove": 5790,
      "standpoint": 5791,
      "sportier": 5792,
      "nicest": 5793,
      "headlamps": 5794,
      "noisey": 5795,
      "ranty": 5796,
      "ratic": 5797,
      "istics": 5798,
      "cale": 5799,
      "causes": 5800,
      "damp": 5801,
      "immac": 5802,
      "ffler": 5803,
      "knowledge": 5804,
      "styles": 5805,
      "snows": 5806,
      "extender": 5807,
      "extensive": 5808,
      "LEAST": 5809,
      "Solid": 5810,
      "tests": 5811,
      "radiators": 5812,
      "190": 5813,
      "19k": 5814,
      "estimat": 5815,
      "rule": 5816,
      "rules": 5817,
      "rush": 5818,
      "costly": 5819,
      "region": 5820,
      "shoulder": 5821,
      "parked": 5822,
      "paralle": 5823,
      "decide": 5824,
      "deciding": 5825,
      "grain": 5826,
      "grass": 5827,
      "40K": 5828,
      "reds": 5829,
      "quietness": 5830,
      "enses": 5831,
      "cier": 5832,
      "minute": 5833,
      "25K": 5834,
      "2500": 5835,
      "reminder": 5836,
      "reminds": 5837,
      "remedy": 5838,
      "tilt": 5839,
      "surface": 5840,
      "freeze": 5841,
      "freezes": 5842,
      "15K": 5843,
      "15k": 5844,
      "packed": 5845,
      "explo": 5846,
      "expenses": 5847,
      "shifters": 5848,
      "rougher": 5849,
      "basis": 5850,
      "sites": 5851,
      "rows": 5852,
      "gearbox": 5853,
      "enjoyable": 5854,
      "enjoyment": 5855,
      "285": 5856,
      "picky": 5857,
      "convers": 5858,
      "marvel": 5859,
      "cables": 5860,
      "vans": 5861,
      "171": 5862,
      "Sebring": 5863,
      "berty": 5864,
      "berry": 5865,
      "180": 5866,
      "motion": 5867,
      "broch": 5868,
      "realistic": 5869,
      "cali": 5870,
      "pamp": 5871,
      "swap": 5872,
      "switches": 5873,
      "stolen": 5874,
      "16mpg": 5875,
      "cares": 5876,
      "obtained": 5877,
      "bumpers": 5878,
      "1990": 5879,
      "1996": 5880,
      "dings": 5881,
      "shops": 5882,
      "Real": 5883,
      "casts": 5884,
      "throughout": 5885,
      "opener": 5886,
      "techn": 5887,
      "12V": 5888,
      "flood": 5889,
      "flag": 5890,
      "largest": 5891,
      "---": 5892,
      "Highway": 5893,
      "gging": 5894,
      "midsize": 5895,
      "functioning": 5896,
      "surprising": 5897,
      "shakes": 5898,
      "shoe": 5899,
      "toys": 5900,
      "checking": 5901,
      "70K": 5902,
      "present": 5903,
      "pointed": 5904,
      "80mph": 5905,
      "hubcaps": 5906,
      "Others": 5907,
      "lackluster": 5908,
      "INE": 5909,
      "LOL": 5910,
      "LOOK": 5911,
      "1300": 5912,
      "fourth": 5913,
      "blackberry": 5914,
      "homework": 5915,
      "noisier": 5916,
      "wonders": 5917,
      "wondering": 5918,
      "stronger": 5919,
      "footrest": 5920,
      "Access": 5921,
      "Spacious": 5922,
      "numb": 5923,
      "annoyances": 5924,
      "charger": 5925,
      "charging": 5926,
      "Because": 5927,
      "Beauti": 5928,
      "horror": 5929,
      "respond": 5930,
      "atively": 5931,
      "Super": 5932,
      "nighttime": 5933,
      "300k": 5934,
      "90K": 5935,
      "burst": 5936,
      "building": 5937,
      "plane": 5938,
      "planning": 5939,
      "pushed": 5940,
      "265": 5941,
      "ONE": 5942,
      "squeaking": 5943,
      "squealing": 5944,
      "wears": 5945,
      "sooner": 5946,
      "cracks": 5947,
      "cracking": 5948,
      "Enjoy": 5949,
      "fills": 5950,
      "folds": 5951,
      "folded": 5952,
      "Goodyear": 5953,
      "helpful": 5954,
      "22k": 5955,
      "cameras": 5956,
      "anged": 5957,
      "storms": 5958,
      "crossing": 5959,
      "signs": 5960,
      "signal": 5961,
      "150s": 5962,
      "Canada": 5963,
      "chair": 5964,
      "drag": 5965,
      "floats": 5966,
      "occur": 5967,
      "wrapped": 5968,
      "stayed": 5969,
      "75K": 5970,
      "TOM": 5971,
      "cube": 5972,
      "tronic": 5973,
      "trails": 5974,
      "Hey": 5975,
      "listed": 5976,
      "listening": 5977,
      "27mpg": 5978,
      "Perhaps": 5979,
      "effect": 5980,
      "Quite": 5981,
      "filters": 5982,
      "Hands": 5983,
      "Trans": 5984,
      "ctronics": 5985,
      "rusting": 5986,
      "reached": 5987,
      "Brought": 5988,
      "Previous": 5989,
      "cups": 5990,
      "grew": 5991,
      "garbage": 5992,
      "ola": 5993,
      "slick": 5994,
      "counting": 5995,
      "smog": 5996,
      "taller": 5997,
      "connects": 5998,
      "connector": 5999,
      "connectiv": 6000,
      "vibrations": 6001,
      "blinding": 6002,
      "55k": 6003,
      "Ours": 6004,
      "Upon": 6005,
      "scrut": 6006,
      "strugg": 6007,
      "rolling": 6008,
      "rollover": 6009,
      "whistling": 6010,
      "coln": 6011,
      "colors": 6012,
      "UNE": 6013,
      "joke": 6014,
      "subwoofer": 6015,
      "Thankfully": 6016,
      "Audio": 6017,
      "investing": 6018,
      "invested": 6019,
      "325xi": 6020,
      "Liberty": 6021,
      "blocked": 6022,
      "complex": 6023,
      "prompt": 6024,
      "Plan": 6025,
      "Turbo": 6026,
      "Turning": 6027,
      "wagons": 6028,
      "located": 6029,
      "compares": 6030,
      "exceptions": 6031,
      "ENSI": 6032,
      "gonna": 6033,
      "negatives": 6034,
      "Chr": 6035,
      "Wasn": 6036,
      "bias": 6037,
      "bike": 6038,
      "attitude": 6039,
      "touchy": 6040,
      "touchscreen": 6041,
      "EVERY": 6042,
      "GTS": 6043,
      "paved": 6044,
      "result": 6045,
      "armrest": 6046,
      "foglights": 6047,
      "CELLENT": 6048,
      "Couldn": 6049,
      "YOU": 6050,
      "benefit": 6051,
      "strip": 6052,
      "strike": 6053,
      "esponsive": 6054,
      "meaning": 6055,
      "regarding": 6056,
      "Reliable": 6057,
      "120k": 6058,
      "EXTREMELY": 6059,
      "EXCELLENT": 6060,
      "HID": 6061,
      "HIGH": 6062,
      "Landcruiser": 6063,
      "RPMs": 6064,
      "messing": 6065,
      "pulleys": 6066,
      "silk": 6067,
      "spray": 6068,
      "bolt": 6069,
      "described": 6070,
      "crashed": 6071,
      "protector": 6072,
      "ridiculously": 6073,
      "approximat": 6074,
      "loyalty": 6075,
      "ETC": 6076,
      "Positive": 6077,
      "Saab": 6078,
      "Tires": 6079,
      "Terrific": 6080,
      "evap": 6081,
      "evident": 6082,
      "jud": 6083,
      "sealant": 6084,
      "destroy": 6085,
      "defects": 6086,
      "dollar": 6087,
      "serviced": 6088,
      "rections": 6089,
      "Germans": 6090,
      "DEF": 6091,
      "Minimal": 6092,
      "Southern": 6093,
      "Southeast": 6094,
      "Taurus": 6095,
      "bouncy": 6096,
      "catcher": 6097,
      "catching": 6098,
      "hydro": 6099,
      "iPhone": 6100,
      "antiqu": 6101,
      "remains": 6102,
      "chronic": 6103,
      "platform": 6104,
      "reported": 6105,
      "ramps": 6106,
      "clunking": 6107,
      "volt": 6108,
      "crossovers": 6109,
      "flawlessly": 6110,
      "manufacturer": 6111,
      "intermittently": 6112,
      "Basically": 6113,
      "Easy": 6114,
      "GOOD": 6115,
      "Resale": 6116,
      "TLC": 6117,
      "tinny": 6118,
      "repeated": 6119,
      "heartbeat": 6120,
      "molded": 6121,
      "quarter": 6122,
      "quarts": 6123,
      "frustration": 6124,
      "remarkably": 6125,
      "certified": 6126,
      "Problems": 6127,
      "370z": 6128,
      "LTD": 6129,
      "MORE": 6130,
      "Sierras": 6131,
      "brilli": 6132,
      "boys": 6133,
      "durable": 6134,
      "durability": 6135,
      "digital": 6136,
      "hottest": 6137,
      "hilly": 6138,
      "jerky": 6139,
      "laser": 6140,
      "walk": 6141,
      "walked": 6142,
      "thrilled": 6143,
      "rewarding": 6144,
      "arrived": 6145,
      "ordin": 6146,
      "shuts": 6147,
      "shudder": 6148,
      "weighed": 6149,
      "specs": 6150,
      "divided": 6151,
      "divider": 6152,
      "profession": 6153,
      "increase": 6154,
      "increases": 6155,
      "shocked": 6156,
      "suddenly": 6157,
      "Average": 6158,
      "Apple": 6159,
      "GHT": 6160,
      "Mobil": 6161,
      "Mobile": 6162,
      "Reminds": 6163,
      "Yokos": 6164,
      "Yokoha": 6165,
      "domestic": 6166,
      "hooked": 6167,
      "walls": 6168,
      "injectors": 6169,
      "adapt": 6170,
      "assistance": 6171,
      "precise": 6172,
      "precision": 6173,
      "disabled": 6174,
      "reduced": 6175,
      "deployed": 6176,
      "Decided": 6177,
      "Rockford": 6178,
      "Doesn": 6179,
      "Started": 6180,
      "ENTUNE": 6181,
      "Luxury": 6182,
      "recognizes": 6183,
      "Crewmax": 6184,
      "Finish": 6185,
      "HAVE": 6186,
      "Liter": 6187,
      "Parts": 6188,
      "September": 6189,
      "gadgets": 6190,
      "pounds": 6191,
      "trend": 6192,
      "zona": 6193,
      "inflated": 6194,
      "loaner": 6195,
      "spirited": 6196,
      "suffers": 6197,
      "intervals": 6198,
      "Costco": 6199,
      "sacrifice": 6200,
      "girlfriend": 6201,
      ":-)": 6202,
      "Amazing": 6203,
      "BIG": 6204,
      "Blind": 6205,
      "Cooper": 6206,
      "Canyon": 6207,
      "Directions": 6208,
      "ECM": 6209,
      "Extremely": 6210,
      "Focus": 6211,
      "Hope": 6212,
      "Lost": 6213,
      "Milage": 6214,
      "Sonata": 6215,
      "Surprisingly": 6216,
      "Torque": 6217,
      "Wanted": 6218,
      "gentle": 6219,
      "miserable": 6220,
      "porsche": 6221,
      "stood": 6222,
      "attribute": 6223,
      "encountered": 6224,
      "versatile": 6225,
      "security": 6226,
      "challenge": 6227,
      "detection": 6228,
      "tradition": 6229,
      "whistle": 6230,
      "members": 6231,
      "meticulous": 6232,
      "excuses": 6233,
      "exhilar": 6234,
      "irritating": 6235,
      "shims": 6236,
      "highlander": 6237,
      "desert": 6238,
      "warranties": 6239,
      "expires": 6240,
      "dynamics": 6241,
      "familiar": 6242,
      "paperwork": 6243,
      "cassette": 6244,
      "Explorer": 6245,
      "responsibility": 6246,
      "supportive": 6247,
      "excitement": 6248,
      "Escalade": 6249,
      "Luckily": 6250,
      "UPDATE": 6251,
      "coworkers": 6252,
      "Avg": 6253,
      "Arizona": 6254,
      "AGAIN": 6255,
      "Besides": 6256,
      "Bullet": 6257,
      "Beware": 6258,
      "Customer": 6259,
      "Clearly": 6260,
      "Datsun": 6261,
      "Diesel": 6262,
      "Despite": 6263,
      "Durango": 6264,
      "Ferrari": 6265,
      "Fortunately": 6266,
      "Fosgate": 6267,
      "Honestly": 6268,
      "Houston": 6269,
      "Jersey": 6270,
      "Key": 6271,
      "Mexico": 6272,
      "Metallic": 6273,
      "MAJOR": 6274,
      "Optima": 6275,
      "Original": 6276,
      "PLASTIC": 6277,
      "Scion": 6278,
      "Stock": 6279,
      "Shame": 6280,
      "Warranty": 6281,
      "Yukon": 6282,
      "ZERO": 6283,
      "birthday": 6284,
      "blogs": 6285,
      "clatter": 6286,
      "damn": 6287,
      "flimsy": 6288,
      "labor": 6289,
      "sources": 6290,
      "udos": 6291,
      "inspired": 6292,
      "oriented": 6293,
      "outrageous": 6294,
      "ashamed": 6295,
      "sturdy": 6296,
      "accustomed": 6297,
      "ropractor": 6298,
      "whatever": 6299,
      "module": 6300,
      "permissible": 6301,
      "ultimately": 6302,
      "illumin": 6303,
      "representative": 6304,
      "premature": 6305,
      "pregnant": 6306,
      "Indian": 6307,
      "undercarriage": 6308,
      "beloved": 6309,
      "immaculate": 6310,
      "Beautiful": 6311,
      "connectivity": 6312,
      "HIGHLY": 6313,
      "approximately": 6314,
      "!.": 6315,
      "!?": 6316,
      "!),": 6317,
      "\"),": 6318,
      "$.": 6319,
      "%.": 6320,
      "(\"": 6321,
      "(*": 6322,
      "(~": 6323,
      ");": 6324,
      "+/-": 6325,
      ",\"": 6326,
      ",,": 6327,
      ".**": 6328,
      "0w": 6329,
      "2x": 6330,
      "260": 6331,
      "270": 6332,
      "250k": 6333,
      "3L": 6334,
      "318": 6335,
      "380": 6336,
      "345": 6337,
      "46": 6338,
      "4w": 6339,
      "450": 6340,
      "470": 6341,
      "4500": 6342,
      "53": 6343,
      "5mpg": 6344,
      "525": 6345,
      "528": 6346,
      "560": 6347,
      "5500": 6348,
      "53000": 6349,
      "56k": 6350,
      "5spd": 6351,
      "61": 6352,
      "6L": 6353,
      "6sp": 6354,
      "640": 6355,
      "6500": 6356,
      "64k": 6357,
      "67K": 6358,
      "79": 6359,
      "8L": 6360,
      "810": 6361,
      "94": 6362,
      "96": 6363,
      "9K": 6364,
      "92000": 6365,
      "94K": 6366,
      "?\"": 6367,
      "AA": 6368,
      "AK": 6369,
      "AU": 6370,
      "Are": 6371,
      "ASE": 6372,
      "AGE": 6373,
      "BC": 6374,
      "BY": 6375,
      "Ber": 6376,
      "Blow": 6377,
      "Blue": 6378,
      "Bird": 6379,
      "BTW": 6380,
      "CC": 6381,
      "Cup": 6382,
      "Coun": 6383,
      "Come": 6384,
      "Cra": 6385,
      "CLE": 6386,
      "Clim": 6387,
      "Cho": 6388,
      "Came": 6389,
      "CTA": 6390,
      "C230": 6391,
      "Coffee": 6392,
      "Camar": 6393,
      "DA": 6394,
      "DD": 6395,
      "Des": 6396,
      "Down": 6397,
      "Det": 6398,
      "Diff": 6399,
      "Dream": 6400,
      "DED": 6401,
      "Drop": 6402,
      "EV": 6403,
      "Eu": 6404,
      "Ev": 6405,
      "Econ": 6406,
      "E350": 6407,
      "E36": 6408,
      "Eye": 6409,
      "ECH": 6410,
      "FO": 6411,
      "FY": 6412,
      "Fa": 6413,
      "Far": 6414,
      "Fri": 6415,
      "Fur": 6416,
      "Ful": 6417,
      "Find": 6418,
      "Fair": 6419,
      "Fold": 6420,
      "FWD": 6421,
      "Fail": 6422,
      "Felt": 6423,
      "FRO": 6424,
      "Filled": 6425,
      "GL": 6426,
      "GS": 6427,
      "Gi": 6428,
      "Gu": 6429,
      "Gen": 6430,
      "G20": 6431,
      "Grant": 6432,
      "GLE": 6433,
      "G37": 6434,
      "GET": 6435,
      "Gorgeous": 6436,
      "Gets": 6437,
      "HD": 6438,
      "HO": 6439,
      "HR": 6440,
      "HV": 6441,
      "HY": 6442,
      "Her": 6443,
      "Hop": 6444,
      "Hate": 6445,
      "Hold": 6446,
      "Hatch": 6447,
      "Hwy": 6448,
      "HOR": 6449,
      "Happy": 6450,
      "Iow": 6451,
      "Ill": 6452,
      "Ilove": 6453,
      "IDrive": 6454,
      "IET": 6455,
      "IME": 6456,
      "Jet": 6457,
      "Kard": 6458,
      "Kudos": 6459,
      "Lb": 6460,
      "Lt": 6461,
      "Las": 6462,
      "Lot": 6463,
      "Line": 6464,
      "Lem": 6465,
      "Less": 6466,
      "Lease": 6467,
      "MM": 6468,
      "MR": 6469,
      "Mit": 6470,
      "Mal": 6471,
      "Mot": 6472,
      "Mes": 6473,
      "Mass": 6474,
      "Mart": 6475,
      "Makes": 6476,
      "Mount": 6477,
      "Mia": 6478,
      "Minder": 6479,
      "MGP": 6480,
      "MAD": 6481,
      "MAF": 6482,
      "Muran": 6483,
      "MUST": 6484,
      "ND": 6485,
      "NM": 6486,
      "None": 6487,
      "Num": 6488,
      "NAH": 6489,
      "OL": 6490,
      "Old": 6491,
      "Ohi": 6492,
      "Option": 6493,
      "OMG": 6494,
      "OUCH": 6495,
      "Pr": 6496,
      "Pen": 6497,
      "Pot": 6498,
      "Pay": 6499,
      "Pres": 6500,
      "Pens": 6501,
      "Paint": 6502,
      "Ponti": 6503,
      "Peri": 6504,
      "Park": 6505,
      "Pol": 6506,
      "PRI": 6507,
      "Paid": 6508,
      "Pandora": 6509,
      "QX5": 6510,
      "RB": 6511,
      "RV": 6512,
      "Ru": 6513,
      "Rout": 6514,
      "Rid": 6515,
      "Rain": 6516,
      "Rever": 6517,
      "RWD": 6518,
      "RON": 6519,
      "Responsive": 6520,
      "RCTA": 6521,
      "SW": 6522,
      "Sen": 6523,
      "Sad": 6524,
      "Str": 6525,
      "Slight": 6526,
      "Show": 6527,
      "S10": 6528,
      "SMG": 6529,
      "Sonic": 6530,
      "TC": 6531,
      "TM": 6532,
      "Ted": 6533,
      "Ten": 6534,
      "Tri": 6535,
      "Treat": 6536,
      "Trun": 6537,
      "Tank": 6538,
      "Taking": 6539,
      "Tie": 6540,
      "TER": 6541,
      "TUN": 6542,
      "TED": 6543,
      "Trip": 6544,
      "Towing": 6545,
      "TIME": 6546,
      "UD": 6547,
      "Usu": 6548,
      "Vo": 6549,
      "Vir": 6550,
      "Vers": 6551,
      "VAN": 6552,
      "VIN": 6553,
      "VING": 6554,
      "VSC": 6555,
      "WN": 6556,
      "Wa": 6557,
      "Wal": 6558,
      "Whic": 6559,
      "Winter": 6560,
      "Wrong": 6561,
      "WOR": 6562,
      "WRX": 6563,
      "WOW": 6564,
      "XLT": 6565,
      "XRS": 6566,
      "Your": 6567,
      "Z3": 6568,
      "aer": 6569,
      "aled": 6570,
      "aible": 6571,
      "bb": 6572,
      "bli": 6573,
      "bent": 6574,
      "bil": 6575,
      "bend": 6576,
      "bby": 6577,
      "bors": 6578,
      "bia": 6579,
      "bird": 6580,
      "bient": 6581,
      "bones": 6582,
      "bah": 6583,
      "bends": 6584,
      "cand": 6585,
      "cti": 6586,
      "cli": 6587,
      "cay": 6588,
      "cles": 6589,
      "cell": 6590,
      "cut": 6591,
      "cpo": 6592,
      "crep": 6593,
      "cused": 6594,
      "ckey": 6595,
      "cats": 6596,
      "cured": 6597,
      "ckets": 6598,
      "coffee": 6599,
      "dth": 6600,
      "dun": 6601,
      "dare": 6602,
      "dent": 6603,
      "dbl": 6604,
      "dges": 6605,
      "data": 6606,
      "dict": 6607,
      "ee": 6608,
      "ecom": 6609,
      "east": 6610,
      "eled": 6611,
      "eved": 6612,
      "egg": 6613,
      "eBay": 6614,
      "ethanol": 6615,
      "fal": 6616,
      "fot": 6617,
      "foo": 6618,
      "fif": 6619,
      "fake": 6620,
      "fash": 6621,
      "fading": 6622,
      "flex": 6623,
      "fico": 6624,
      "gli": 6625,
      "gant": 6626,
      "glu": 6627,
      "gely": 6628,
      "glit": 6629,
      "gap": 6630,
      "gra": 6631,
      "gger": 6632,
      "glor": 6633,
      "gps": 6634,
      "grated": 6635,
      "gross": 6636,
      "hing": 6637,
      "hust": 6638,
      "hell": 6639,
      "hous": 6640,
      "hers": 6641,
      "hors": 6642,
      "hist": 6643,
      "hite": 6644,
      "holl": 6645,
      "honey": 6646,
      "hates": 6647,
      "iL": 6648,
      "iv": 6649,
      "iz": 6650,
      "ife": 6651,
      "idrive": 6652,
      "iving": 6653,
      "iated": 6654,
      "iably": 6655,
      "izing": 6656,
      "iator": 6657,
      "ios": 6658,
      "ians": 6659,
      "imum": 6660,
      "jam": 6661,
      "jew": 6662,
      "ker": 6663,
      "kne": 6664,
      "kart": 6665,
      "ksw": 6666,
      "kiness": 6667,
      "loo": 6668,
      "lau": 6669,
      "lap": 6670,
      "link": 6671,
      "lash": 6672,
      "lame": 6673,
      "lah": 6674,
      "lanta": 6675,
      "mr": 6676,
      "mou": 6677,
      "mould": 6678,
      "mere": 6679,
      "mass": 6680,
      "mise": 6681,
      "master": 6682,
      "muted": 6683,
      "nel": 6684,
      "nine": 6685,
      "nous": 6686,
      "nick": 6687,
      "nons": 6688,
      "ngest": 6689,
      "nature": 6690,
      "nagging": 6691,
      "ox": 6692,
      "ored": 6693,
      "olog": 6694,
      "pes": 6695,
      "pac": 6696,
      "psi": 6697,
      "ppe": 6698,
      "pour": 6699,
      "pride": 6700,
      "port": 6701,
      "pist": 6702,
      "pical": 6703,
      "patch": 6704,
      "pilot": 6705,
      "ptronic": 6706,
      "qt": 6707,
      "rou": 6708,
      "rur": 6709,
      "rash": 6710,
      "sent": 6711,
      "smiles": 6712,
      "sche": 6713,
      "sist": 6714,
      "sons": 6715,
      "seld": 6716,
      "skept": 6717,
      "sky": 6718,
      "slop": 6719,
      "tar": 6720,
      "tro": 6721,
      "tab": 6722,
      "tts": 6723,
      "tour": 6724,
      "tling": 6725,
      "tum": 6726,
      "ticker": 6727,
      "uar": 6728,
      "uing": 6729,
      "uti": 6730,
      "uations": 6731,
      "uckle": 6732,
      "vir": 6733,
      "vil": 6734,
      "vior": 6735,
      "vably": 6736,
      "vastly": 6737,
      "wk": 6738,
      "ws": 6739,
      "ww": 6740,
      "wis": 6741,
      "wit": 6742,
      "wob": 6743,
      "x3": 6744,
      "xious": 6745,
      "ya": 6746,
      "ying": 6747,
      "yell": 6748,
      "yard": 6749,
      "yaris": 6750,
      "zel": 6751,
      "zens": 6752,
      "ths": 6753,
      "thro": 6754,
      "thirst": 6755,
      "thigh": 6756,
      "threw": 6757,
      "iny": 6758,
      "inent": 6759,
      "intru": 6760,
      "inop": 6761,
      "inely": 6762,
      "inspe": 6763,
      "inser": 6764,
      "infl": 6765,
      "infiniti": 6766,
      "invoice": 6767,
      "inlaw": 6768,
      "inconsistent": 6769,
      "insane": 6770,
      "anch": 6771,
      "ansion": 6772,
      "analy": 6773,
      "ancial": 6774,
      "eral": 6775,
      "erent": 6776,
      "erating": 6777,
      "errand": 6778,
      "erratic": 6779,
      "thest": 6780,
      "theft": 6781,
      "isk": 6782,
      "ishi": 6783,
      "isite": 6784,
      "isnt": 6785,
      "onco": 6786,
      "onment": 6787,
      "onramps": 6788,
      "rema": 6789,
      "relu": 6790,
      "resol": 6791,
      "refine": 6792,
      "redesigned": 6793,
      "retail": 6794,
      "refill": 6795,
      "restarts": 6796,
      "recharge": 6797,
      "retired": 6798,
      "reprogram": 6799,
      "respect": 6800,
      "reza": 6801,
      "requir": 6802,
      "retained": 6803,
      "lever": 6804,
      "lement": 6805,
      "andard": 6806,
      "arant": 6807,
      "orse": 6808,
      "ories": 6809,
      "orange": 6810,
      "oramic": 6811,
      "atures": 6812,
      "itish": 6813,
      "oup": 6814,
      "asy": 6815,
      "asks": 6816,
      "aspir": 6817,
      "toon": 6818,
      "tore": 6819,
      "toes": 6820,
      "tober": 6821,
      "toss": 6822,
      "inging": 6823,
      "eds": 6824,
      "edly": 6825,
      "edges": 6826,
      "edmunds": 6827,
      "ena": 6828,
      "ened": 6829,
      "entr": 6830,
      "enne": 6831,
      "eness": 6832,
      "encour": 6833,
      "encumber": 6834,
      "eniably": 6835,
      "envir": 6836,
      "ala": 6837,
      "alk": 6838,
      "alth": 6839,
      "albe": 6840,
      "aline": 6841,
      "alers": 6842,
      "alleg": 6843,
      "altogether": 6844,
      "altit": 6845,
      "sti": 6846,
      "stab": 6847,
      "stage": 6848,
      "sters": 6849,
      "stating": 6850,
      "story": 6851,
      "staff": 6852,
      "rim": 6853,
      "rich": 6854,
      "rider": 6855,
      "rious": 6856,
      "ripped": 6857,
      "havior": 6858,
      "omely": 6859,
      "verified": 6860,
      "versus": 6861,
      "vernous": 6862,
      "forgot": 6863,
      "forgive": 6864,
      "forcing": 6865,
      "owe": 6866,
      "elm": 6867,
      "elled": 6868,
      "eltering": 6869,
      "carseats": 6870,
      "carried": 6871,
      "cartoon": 6872,
      "hea": 6873,
      "hemi": 6874,
      "health": 6875,
      "icy": 6876,
      "icoil": 6877,
      "esomely": 6878,
      "wimp": 6879,
      "wipe": 6880,
      "wired": 6881,
      "wifes": 6882,
      "width": 6883,
      "beet": 6884,
      "beled": 6885,
      "beef": 6886,
      "beams": 6887,
      "beaches": 6888,
      "beeps": 6889,
      "bezel": 6890,
      "behavior": 6891,
      "aco": 6892,
      "acle": 6893,
      "acid": 6894,
      "ackets": 6895,
      "acola": 6896,
      "semi": 6897,
      "sexy": 6898,
      "ge5": 6899,
      "geles": 6900,
      "geared": 6901,
      "roit": 6902,
      "rodu": 6903,
      "rocks": 6904,
      "roded": 6905,
      "admi": 6906,
      "advan": 6907,
      "admir": 6908,
      "adren": 6909,
      "advent": 6910,
      "tilated": 6911,
      "bug": 6912,
      "bution": 6913,
      "abli": 6914,
      "abound": 6915,
      "abling": 6916,
      "ablity": 6917,
      "chu": 6918,
      "ching": 6919,
      "church": 6920,
      "lion": 6921,
      "limo": 6922,
      "liqu": 6923,
      "liking": 6924,
      "liary": 6925,
      "lifer": 6926,
      "havent": 6927,
      "mily": 6928,
      "mill": 6929,
      "mild": 6930,
      "Their": 6931,
      "dew": 6932,
      "deer": 6933,
      "dece": 6934,
      "depre": 6935,
      "defin": 6936,
      "device": 6937,
      "delet": 6938,
      "degrad": 6939,
      "default": 6940,
      "trany": 6941,
      "drill": 6942,
      "drift": 6943,
      "complic": 6944,
      "unge": 6945,
      "unable": 6946,
      "unus": 6947,
      "unhappy": 6948,
      "unlock": 6949,
      "unstable": 6950,
      "unfriendly": 6951,
      "unusual": 6952,
      "unpleasant": 6953,
      "unconventional": 6954,
      "unsurpassed": 6955,
      "ooo": 6956,
      "ays": 6957,
      "whelm": 6958,
      "lluting": 6959,
      "mets": 6960,
      "meets": 6961,
      "neck": 6962,
      "negot": 6963,
      "neath": 6964,
      "newest": 6965,
      "sian": 6966,
      "sipping": 6967,
      "sienna": 6968,
      "modes": 6969,
      "outs": 6970,
      "output": 6971,
      "outdoor": 6972,
      "outlet": 6973,
      "waste": 6974,
      "youth": 6975,
      "youngest": 6976,
      "alloy": 6977,
      "solo": 6978,
      "soil": 6979,
      "soaked": 6980,
      "cember": 6981,
      "ceiling": 6982,
      "areg": 6983,
      "notable": 6984,
      "noticing": 6985,
      "exe": 6986,
      "exqu": 6987,
      "exhi": 6988,
      "exting": 6989,
      "urge": 6990,
      "urable": 6991,
      "urance": 6992,
      "urry": 6993,
      "fears": 6994,
      "mp3": 6995,
      "confort": 6996,
      "convi": 6997,
      "contribut": 6998,
      "lover": 6999,
      "logo": 7000,
      "cker": 7001,
      "spit": 7002,
      "spong": 7003,
      "spite": 7004,
      "spok": 7005,
      "spans": 7006,
      "spoke": 7007,
      "noon": 7008,
      "hassle": 7009,
      "enty": 7010,
      "maps": 7011,
      "drivetrain": 7012,
      "shy": 7013,
      "shown": 7014,
      "shine": 7015,
      "sures": 7016,
      "suite": 7017,
      "plates": 7018,
      "Through": 7019,
      "idling": 7020,
      "identi": 7021,
      "proven": 7022,
      "proved": 7023,
      "propor": 7024,
      "dodges": 7025,
      "dozens": 7026,
      "pery": 7027,
      "earl": 7028,
      "earing": 7029,
      "earlier": 7030,
      "qual": 7031,
      "quart": 7032,
      "quoted": 7033,
      "queness": 7034,
      "greater": 7035,
      "webs": 7036,
      "upward": 7037,
      "amer": 7038,
      "amate": 7039,
      "amounts": 7040,
      "ambient": 7041,
      "usage": 7042,
      "ussy": 7043,
      "usability": 7044,
      "frank": 7045,
      "fraud": 7046,
      "ifter": 7047,
      "ifically": 7048,
      "truth": 7049,
      "peel": 7050,
      "pepp": 7051,
      "pebble": 7052,
      "peeve": 7053,
      "nowhere": 7054,
      "ants": 7055,
      "anty": 7056,
      "uling": 7057,
      "smt": 7058,
      "smit": 7059,
      "smalle": 7060,
      "ressed": 7061,
      "000miles": 7062,
      "ainment": 7063,
      "anyways": 7064,
      "god": 7065,
      "inders": 7066,
      "indiv": 7067,
      "blems": 7068,
      "cano": 7069,
      "cannis": 7070,
      "astound": 7071,
      "overdrive": 7072,
      "override": 7073,
      "overfill": 7074,
      "oversized": 7075,
      "overkill": 7076,
      "overwhelm": 7077,
      "seatbelt": 7078,
      "utal": 7079,
      "utters": 7080,
      "news": 7081,
      "aux": 7082,
      "auxi": 7083,
      "endless": 7084,
      "ctant": 7085,
      "emission": 7086,
      "emblems": 7087,
      "safer": 7088,
      "whenever": 7089,
      "worsen": 7090,
      "20000": 7091,
      "ills": 7092,
      "goodies": 7093,
      "opted": 7094,
      "ationship": 7095,
      "205": 7096,
      "208": 7097,
      "20K": 7098,
      "20mpg": 7099,
      "backs": 7100,
      "backseats": 7101,
      "backward": 7102,
      "veness": 7103,
      "ventil": 7104,
      "ventilated": 7105,
      "tionate": 7106,
      "interstates": 7107,
      "roadtrips": 7108,
      "deals": 7109,
      "handed": 7110,
      "handler": 7111,
      "handeling": 7112,
      "ards": 7113,
      "bru": 7114,
      "brow": 7115,
      "brings": 7116,
      "brackets": 7117,
      "brutal": 7118,
      "wouldnt": 7119,
      "intact": 7120,
      "introdu": 7121,
      "somehow": 7122,
      "somethin": 7123,
      "cos": 7124,
      "coin": 7125,
      "core": 7126,
      "coal": 7127,
      "coating": 7128,
      "cozy": 7129,
      "engineers": 7130,
      "official": 7131,
      "muffler": 7132,
      "everytime": 7133,
      "compelled": 7134,
      "teens": 7135,
      "fund": 7136,
      "funny": 7137,
      "funky": 7138,
      "funnest": 7139,
      "gotta": 7140,
      "bose": 7141,
      "bold": 7142,
      "focus": 7143,
      "focused": 7144,
      "asses": 7145,
      "desper": 7146,
      "desired": 7147,
      "purchaser": 7148,
      "litre": 7149,
      "afternoon": 7150,
      "buyback": 7151,
      "monitors": 7152,
      "artist": 7153,
      "...)": 7154,
      "lence": 7155,
      "lightweight": 7156,
      "bye": 7157,
      "vio": 7158,
      "vived": 7159,
      "thereafter": 7160,
      "avan": 7161,
      "Weird": 7162,
      "didnt": 7163,
      "speaks": 7164,
      "pose": 7165,
      "poke": 7166,
      "points": 7167,
      "polish": 7168,
      "pockets": 7169,
      "polluting": 7170,
      "sys": 7171,
      "symph": 7172,
      "trickle": 7173,
      "events": 7174,
      "!!)": 7175,
      "priate": 7176,
      "pricier": 7177,
      "presets": 7178,
      "premise": 7179,
      "twenty": 7180,
      "performace": 7181,
      "context": 7182,
      "monthly": 7183,
      "ipts": 7184,
      "serve": 7185,
      "seren": 7186,
      "rearview": 7187,
      "Infin": 7188,
      "distr": 7189,
      "disengage": 7190,
      "discontinued": 7191,
      "disconnect": 7192,
      "dispropor": 7193,
      "smoothest": 7194,
      "manage": 7195,
      "managed": 7196,
      "topper": 7197,
      "warmer": 7198,
      "warren": 7199,
      "wheeler": 7200,
      "50mpg": 7201,
      "50mph": 7202,
      "fabul": 7203,
      "faith": 7204,
      "fight": 7205,
      "SUSP": 7206,
      "valves": 7207,
      "dimm": 7208,
      "division": 7209,
      "recline": 7210,
      "30th": 7211,
      "apping": 7212,
      "lately": 7213,
      "lative": 7214,
      "imped": 7215,
      "impala": 7216,
      "umb": 7217,
      "useable": 7218,
      "usetts": 7219,
      "speedo": 7220,
      "awsome": 7221,
      "awesomely": 7222,
      "underbody": 7223,
      "understeer": 7224,
      "underneath": 7225,
      "leases": 7226,
      "mainten": 7227,
      "winding": 7228,
      "windscreen": 7229,
      "condens": 7230,
      "matches": 7231,
      "designs": 7232,
      "prit": 7233,
      "prist": 7234,
      "proud": 7235,
      "105K": 7236,
      "101k": 7237,
      "publ": 7238,
      "passer": 7239,
      "belong": 7240,
      "final": 7241,
      "ridden": 7242,
      "White": 7243,
      "rolled": 7244,
      "expects": 7245,
      "sively": 7246,
      "sounding": 7247,
      "sounded": 7248,
      "readout": 7249,
      "incline": 7250,
      "incident": 7251,
      "aching": 7252,
      "achusetts": 7253,
      "badly": 7254,
      "badging": 7255,
      "hardtop": 7256,
      "hardware": 7257,
      "istically": 7258,
      "istmas": 7259,
      "cavernous": 7260,
      "imity": 7261,
      "fixes": 7262,
      "knowing": 7263,
      "stylist": 7264,
      "autos": 7265,
      "automot": 7266,
      "extrem": 7267,
      "frontal": 7268,
      "maker": 7269,
      "makers": 7270,
      "LEAGE": 7271,
      "1988": 7272,
      "1986": 7273,
      "clamp": 7274,
      "largely": 7275,
      "excellently": 7276,
      "shouldn": 7277,
      "bla": 7278,
      "blade": 7279,
      "blaz": 7280,
      "blurry": 7281,
      "decade": 7282,
      "decreas": 7283,
      "decades": 7284,
      "gray": 7285,
      "grinds": 7286,
      "40mph": 7287,
      "merge": 7288,
      "mercedes": 7289,
      "merging": 7290,
      "redline": 7291,
      "plaints": 7292,
      "Former": 7293,
      "ctions": 7294,
      "letting": 7295,
      "cious": 7296,
      "minis": 7297,
      "mined": 7298,
      "seemingly": 7299,
      "recommendation": 7300,
      "25k": 7301,
      "25mpg": 7302,
      "25MPG": 7303,
      "remorse": 7304,
      "expert": 7305,
      "experts": 7306,
      "axel": 7307,
      "axles": 7308,
      "cords": 7309,
      "corvet": 7310,
      "correction": 7311,
      "corollas": 7312,
      "corroded": 7313,
      "surpasses": 7314,
      "survived": 7315,
      "complains": 7316,
      "cycle": 7317,
      "freeways": 7318,
      "freezing": 7319,
      "addy": 7320,
      "addict": 7321,
      "35i": 7322,
      "35000": 7323,
      "35mpg": 7324,
      "Aftermarket": 7325,
      "reviewer": 7326,
      "expired": 7327,
      "expedition": 7328,
      "expansion": 7329,
      "closes": 7330,
      "settling": 7331,
      "accelerations": 7332,
      "VEHI": 7333,
      "ointed": 7334,
      "basics": 7335,
      "elements": 7336,
      "elevation": 7337,
      "situations": 7338,
      "secondary": 7339,
      "Corners": 7340,
      "curved": 7341,
      "curbs": 7342,
      "curvy": 7343,
      "Whenever": 7344,
      "sportscar": 7345,
      "ranged": 7346,
      "creak": 7347,
      "creaks": 7348,
      "nailed": 7349,
      "gearing": 7350,
      "114": 7351,
      "11K": 7352,
      "11k": 7353,
      "11000": 7354,
      "appointments": 7355,
      "280": 7356,
      "28k": 7357,
      "28mpg": 7358,
      "batch": 7359,
      "ensions": 7360,
      "stoplight": 7361,
      "sensation": 7362,
      "converted": 7363,
      "covering": 7364,
      "guage": 7365,
      "guide": 7366,
      "guarant": 7367,
      "helicoil": 7368,
      "kidney": 7369,
      "northern": 7370,
      "poorer": 7371,
      "170": 7372,
      "See": 7373,
      "Seat": 7374,
      "Seating": 7375,
      "berb": 7376,
      "stars": 7377,
      "starters": 7378,
      "radios": 7379,
      "188": 7380,
      "18mpg": 7381,
      "SEV6": 7382,
      "SENT": 7383,
      "hockey": 7384,
      "visit": 7385,
      "visors": 7386,
      "visible": 7387,
      "chore": 7388,
      "Drivers": 7389,
      "realy": 7390,
      "Price": 7391,
      "odate": 7392,
      "swapped": 7393,
      "sweltering": 7394,
      "stole": 7395,
      "sunny": 7396,
      "sunshade": 7397,
      "undeniably": 7398,
      "solidly": 7399,
      "considerably": 7400,
      "cylinders": 7401,
      "165": 7402,
      "16k": 7403,
      "Dealers": 7404,
      "December": 7405,
      "RED": 7406,
      "REFU": 7407,
      "captain": 7408,
      "obje": 7409,
      "1992": 7410,
      "believed": 7411,
      "leatherette": 7412,
      "Recall": 7413,
      "Recalls": 7414,
      "casino": 7415,
      "fitting": 7416,
      "plays": 7417,
      "playing": 7418,
      "players": 7419,
      "motoring": 7420,
      "NOW": 7421,
      "volum": 7422,
      "techs": 7423,
      "126k": 7424,
      "flames": 7425,
      "flushes": 7426,
      "recalling": 7427,
      "Ask": 7428,
      "Caravan": 7429,
      "payload": 7430,
      "bargain": 7431,
      "shoes": 7432,
      "bedded": 7433,
      "colder": 7434,
      "142": 7435,
      "148": 7436,
      "14k": 7437,
      "rented": 7438,
      "ACK": 7439,
      "ACCE": 7440,
      "pressed": 7441,
      "presence": 7442,
      "presents": 7443,
      "instant": 7444,
      "pointment": 7445,
      "navigational": 7446,
      "80k": 7447,
      "finest": 7448,
      "hugging": 7449,
      "partly": 7450,
      "wished": 7451,
      "waterpump": 7452,
      "account": 7453,
      "accents": 7454,
      "Thats": 7455,
      "petite": 7456,
      "Siena": 7457,
      "lacking": 7458,
      "screams": 7459,
      "tightly": 7460,
      "tightened": 7461,
      "miracle": 7462,
      "keyed": 7463,
      "closest": 7464,
      "LOTS": 7465,
      "LOUD": 7466,
      "resting": 7467,
      "restri": 7468,
      "showroom": 7469,
      "dependability": 7470,
      "133": 7471,
      "13mpg": 7472,
      "1340": 7473,
      "131340": 7474,
      "Exhaust": 7475,
      "X5M": 7476,
      "X5s": 7477,
      "rotating": 7478,
      "improves": 7479,
      "blacktop": 7480,
      "2400": 7481,
      "24mpg": 7482,
      "noying": 7483,
      "lateral": 7484,
      "THS": 7485,
      "THAT": 7486,
      "alert": 7487,
      "strongly": 7488,
      "replacements": 7489,
      "2350": 7490,
      "According": 7491,
      "Compar": 7492,
      "Complaints": 7493,
      "Spot": 7494,
      "sheet": 7495,
      "annoyed": 7496,
      "annoyance": 7497,
      "adjusts": 7498,
      "adjustability": 7499,
      "charcoal": 7500,
      "identical": 7501,
      "Beemer": 7502,
      "ITIVE": 7503,
      "responds": 7504,
      "fails": 7505,
      "Mode": 7506,
      "45k": 7507,
      "continental": 7508,
      "300Z": 7509,
      "90k": 7510,
      "loudest": 7511,
      "hearing": 7512,
      "planing": 7513,
      "planned": 7514,
      "tempted": 7515,
      "temporary": 7516,
      "26k": 7517,
      "26mpg": 7518,
      "ONLY": 7519,
      "Someone": 7520,
      "Something": 7521,
      "azines": 7522,
      "cools": 7523,
      "cooler": 7524,
      "giant": 7525,
      "lined": 7526,
      "Enough": 7527,
      "Full": 7528,
      "ISSU": 7529,
      "media": 7530,
      "tickets": 7531,
      "osite": 7532,
      "extraordin": 7533,
      "shipped": 7534,
      "shielding": 7535,
      "22mpg": 7536,
      "Purchase": 7537,
      "storm": 7538,
      "completed": 7539,
      "Hybrids": 7540,
      "STEM": 7541,
      "STRON": 7542,
      "dreamed": 7543,
      "jobs": 7544,
      "slowing": 7545,
      "aneously": 7546,
      "signed": 7547,
      "signals": 7548,
      "150k": 7549,
      "21K": 7550,
      "drink": 7551,
      "drastic": 7552,
      "occup": 7553,
      "occured": 7554,
      "wolf": 7555,
      "75000": 7556,
      "TOO": 7557,
      "Under": 7558,
      "Unless": 7559,
      "cuts": 7560,
      "curious": 7561,
      "ferry": 7562,
      "graduation": 7563,
      "nesses": 7564,
      "panoramic": 7565,
      "nologies": 7566,
      "trailing": 7567,
      "satisfactory": 7568,
      "satisfy": 7569,
      "32mpg": 7570,
      "36K": 7571,
      "36000": 7572,
      "Around": 7573,
      "Armand": 7574,
      "centers": 7575,
      "mighty": 7576,
      "exclu": 7577,
      "excess": 7578,
      "exciting": 7579,
      "plugged": 7580,
      "maintaining": 7581,
      "VERS": 7582,
      "shields": 7583,
      "27k": 7584,
      "Hauling": 7585,
      "entially": 7586,
      "heaters": 7587,
      "65mph": 7588,
      "Looked": 7589,
      "Nevertheless": 7590,
      "Powerful": 7591,
      "ansas": 7592,
      "requires": 7593,
      "confused": 7594,
      "confidently": 7595,
      "sumers": 7596,
      "transform": 7597,
      "Sportage": 7598,
      "advertise": 7599,
      "advertising": 7600,
      "$$$$": 7601,
      "$$$$$": 7602,
      "ES350": 7603,
      "ES330": 7604,
      "ESCL": 7605,
      "Handy": 7606,
      "TRI": 7607,
      "dedu": 7608,
      "gained": 7609,
      "kinds": 7610,
      "rusted": 7611,
      "reaching": 7612,
      "enzas": 7613,
      "versions": 7614,
      "appropriate": 7615,
      "cleaning": 7616,
      "330CI": 7617,
      "Braking": 7618,
      "Bronco": 7619,
      "British": 7620,
      "Coast": 7621,
      "Colum": 7622,
      "Lets": 7623,
      "Left": 7624,
      "cupholders": 7625,
      "knobs": 7626,
      "tendency": 7627,
      "stiffer": 7628,
      "practically": 7629,
      "finished": 7630,
      "continuing": 7631,
      "continuous": 7632,
      "Donner": 7633,
      "counterparts": 7634,
      "smoking": 7635,
      "slightest": 7636,
      "beaten": 7637,
      "connected": 7638,
      "compliment": 7639,
      "vibrate": 7640,
      "displays": 7641,
      "Box": 7642,
      "ERS": 7643,
      "Sticker": 7644,
      "Standard": 7645,
      "totalled": 7646,
      "alized": 7647,
      "roller": 7648,
      "mobiles": 7649,
      "maxima": 7650,
      "maximas": 7651,
      "maximum": 7652,
      "providing": 7653,
      "typically": 7654,
      "steady": 7655,
      "COM": 7656,
      "February": 7657,
      "uries": 7658,
      "receipts": 7659,
      "ordering": 7660,
      "subframe": 7661,
      "manufacturing": 7662,
      "manufactured": 7663,
      "favorable": 7664,
      "ABIL": 7665,
      "bottles": 7666,
      "hoped": 7667,
      "hopes": 7668,
      "senior": 7669,
      "spaciousness": 7670,
      "ification": 7671,
      "promise": 7672,
      "promises": 7673,
      "zeroed": 7674,
      "OKE": 7675,
      "Play": 7676,
      "RIBLE": 7677,
      "Turn": 7678,
      "Turned": 7679,
      "USA": 7680,
      "banding": 7681,
      "knife": 7682,
      "knuckle": 7683,
      "rpms": 7684,
      "locally": 7685,
      "locate": 7686,
      "worlds": 7687,
      "Needed": 7688,
      "born": 7689,
      "create": 7690,
      "creates": 7691,
      "phones": 7692,
      "ssan": 7693,
      "slipping": 7694,
      "slips": 7695,
      "alternate": 7696,
      "alternative": 7697,
      "lifted": 7698,
      "indicate": 7699,
      "indicators": 7700,
      "warming": 7701,
      "50kph": 7702,
      "100km": 7703,
      "positioning": 7704,
      "Performs": 7705,
      "CRU": 7706,
      "Changed": 7707,
      "Relatively": 7708,
      "firmer": 7709,
      "versal": 7710,
      "bulb": 7711,
      "bulky": 7712,
      "shutter": 7713,
      "shutting": 7714,
      "suggestion": 7715,
      "general": 7716,
      "mornings": 7717,
      "Normal": 7718,
      "Probably": 7719,
      "Passat": 7720,
      "WARE": 7721,
      "equally": 7722,
      "treatment": 7723,
      "refused": 7724,
      "leaves": 7725,
      "admittedly": 7726,
      "component": 7727,
      "Accelerates": 7728,
      "regretted": 7729,
      "42K": 7730,
      "4000rpm": 7731,
      "Anti": 7732,
      "Angeles": 7733,
      "Annoying": 7734,
      "Built": 7735,
      "Cruise": 7736,
      "DOWN": 7737,
      "Porsches": 7738,
      "Shifter": 7739,
      "Speaking": 7740,
      "brightness": 7741,
      "galore": 7742,
      "hurry": 7743,
      "kicks": 7744,
      "kicked": 7745,
      "wooden": 7746,
      "zzard": 7747,
      "strict": 7748,
      "uniqueness": 7749,
      "universal": 7750,
      "appreciated": 7751,
      "regards": 7752,
      "Autobah": 7753,
      "Reliablity": 7754,
      "120K": 7755,
      "BEWARE": 7756,
      "Cabs": 7757,
      "furnit": 7758,
      "racer": 7759,
      "rounded": 7760,
      "aligned": 7761,
      "unching": 7762,
      "silver": 7763,
      "silly": 7764,
      "description": 7765,
      "diagnosed": 7766,
      "protect": 7767,
      "protected": 7768,
      "collects": 7769,
      "Mazda3": 7770,
      "335d": 7771,
      "DID": 7772,
      "Small": 7773,
      "Temp": 7774,
      "Time": 7775,
      "Tercel": 7776,
      "Terra": 7777,
      "Terrible": 7778,
      "books": 7779,
      "moms": 7780,
      "watching": 7781,
      "revs": 7782,
      "revving": 7783,
      "chiropractor": 7784,
      "preferred": 7785,
      "corrected": 7786,
      "Moreover": 7787,
      "significantly": 7788,
      "effortlessly": 7789,
      "knocked": 7790,
      "begins": 7791,
      "Mini": 7792,
      "Minor": 7793,
      "Minnes": 7794,
      "Radiator": 7795,
      "South": 7796,
      "bounces": 7797,
      "bouncing": 7798,
      "facility": 7799,
      "massive": 7800,
      "opposed": 7801,
      "purr": 7802,
      "purpose": 7803,
      "pains": 7804,
      "sister": 7805,
      "sweat": 7806,
      "relli": 7807,
      "relax": 7808,
      "relaible": 7809,
      "relationship": 7810,
      "remained": 7811,
      "strongest": 7812,
      "interesting": 7813,
      "claimed": 7814,
      "Recent": 7815,
      "volksw": 7816,
      "installing": 7817,
      "installation": 7818,
      "gripes": 7819,
      "48k": 7820,
      "89k": 7821,
      "ALWAY": 7822,
      "Easily": 7823,
      "Going": 7824,
      "Goes": 7825,
      "Miles": 7826,
      "Milo": 7827,
      "Miata": 7828,
      "Result": 7829,
      "Syn": 7830,
      "Simple": 7831,
      "Window": 7832,
      "Windstar": 7833,
      "glovebox": 7834,
      "lawy": 7835,
      "pitiful": 7836,
      "thumping": 7837,
      "accomodate": 7838,
      "advance": 7839,
      "molding": 7840,
      "arents": 7841,
      "contrast": 7842,
      "contrary": 7843,
      "quarters": 7844,
      "specialist": 7845,
      "certian": 7846,
      "Technology": 7847,
      "maneuverability": 7848,
      "110K": 7849,
      "328d": 7850,
      "Amsoil": 7851,
      "Bigger": 7852,
      "Biggest": 7853,
      "Okay": 7854,
      "Oklah": 7855,
      "Repair": 7856,
      "Sunday": 7857,
      "TSB": 7858,
      "Work": 7859,
      "abused": 7860,
      "dads": 7861,
      "lasts": 7862,
      "operate": 7863,
      "ritory": 7864,
      "rewards": 7865,
      "arrival": 7866,
      "carrier": 7867,
      "carries": 7868,
      "sections": 7869,
      "necessarily": 7870,
      "magically": 7871,
      "magazines": 7872,
      "aggressively": 7873,
      "offroading": 7874,
      "appeal": 7875,
      "specific": 7876,
      "pothole": 7877,
      "primary": 7878,
      "profile": 7879,
      "regulators": 7880,
      "growing": 7881,
      "ANYTHING": 7882,
      "sleeping": 7883,
      "bulletin": 7884,
      "Averaging": 7885,
      "Ended": 7886,
      "Endurance": 7887,
      "Hydro": 7888,
      "NYC": 7889,
      "NISMO": 7890,
      "Outback": 7891,
      "Outside": 7892,
      "SOO": 7893,
      "Trying": 7894,
      "VDC": 7895,
      "darken": 7896,
      "flying": 7897,
      "nismo": 7898,
      "nalists": 7899,
      "scen": 7900,
      "sending": 7901,
      "skidding": 7902,
      "tuff": 7903,
      "tucked": 7904,
      "aspect": 7905,
      "seventh": 7906,
      "defroster": 7907,
      "unbelievably": 7908,
      "quirky": 7909,
      "teenage": 7910,
      "crisp": 7911,
      "commands": 7912,
      "matching": 7913,
      "reduces": 7914,
      "Corvettes": 7915,
      "technicians": 7916,
      "effects": 7917,
      "effective": 7918,
      "effecti": 7919,
      "requirements": 7920,
      "slippery": 7921,
      "Luxurious": 7922,
      "Vehicles": 7923,
      "Mustangs": 7924,
      "recognition": 7925,
      "Added": 7926,
      "Crummy": 7927,
      "Dashboard": 7928,
      "FIVE": 7929,
      "Fix": 7930,
      "Financial": 7931,
      "GAS": 7932,
      "Hub": 7933,
      "Huge": 7934,
      "Jaguar": 7935,
      "Little": 7936,
      "Maintenance": 7937,
      "OWN": 7938,
      "Swiss": 7939,
      "TRAIN": 7940,
      "Valley": 7941,
      "culprit": 7942,
      "flowed": 7943,
      "fishing": 7944,
      "fishtail": 7945,
      "hunts": 7946,
      "humble": 7947,
      "launch": 7948,
      "labeled": 7949,
      "sooo": 7950,
      "injury": 7951,
      "injuries": 7952,
      "inois": 7953,
      "inflatable": 7954,
      "stalls": 7955,
      "selected": 7956,
      "details": 7957,
      "planted": 7958,
      "dissapointment": 7959,
      "directly": 7960,
      "directions": 7961,
      "flashy": 7962,
      "Headquarters": 7963,
      "Legacy": 7964,
      "climbing": 7965,
      "reflect": 7966,
      "criticism": 7967,
      "Safety": 7968,
      "skiing": 7969,
      "skipping": 7970,
      "sacrificed": 7971,
      "enthusiast": 7972,
      "enthusiasts": 7973,
      "Dunlop": 7974,
      "Impreza": 7975,
      "Mechan": 7976,
      "Manual": 7977,
      "NIssan": 7978,
      "Ordered": 7979,
      "Picked": 7980,
      "SAY": 7981,
      "Summer": 7982,
      "Spring": 7983,
      "Springs": 7984,
      "SPOR": 7985,
      "TWO": 7986,
      "True": 7987,
      "Traction": 7988,
      "Viper": 7989,
      "View": 7990,
      "WHAT": 7991,
      "draft": 7992,
      "fatig": 7993,
      "finger": 7994,
      "ginia": 7995,
      "pattern": 7996,
      "prepared": 7997,
      "south": 7998,
      "shades": 7999,
      "score": 8000,
      "scores": 8001,
      "sorta": 8002,
      "tuned": 8003,
      "zippy": 8004,
      "assume": 8005,
      "straining": 8006,
      "beamer": 8007,
      "buzzing": 8008,
      "buzzer": 8009,
      "bubbled": 8010,
      "dearly": 8011,
      "determine": 8012,
      "determined": 8013,
      "demands": 8014,
      "existent": 8015,
      "proximity": 8016,
      "integr": 8017,
      "integrated": 8018,
      "crafted": 8019,
      "repainted": 8020,
      "preventive": 8021,
      "disappearing": 8022,
      "dimensions": 8023,
      "improving": 8024,
      "partial": 8025,
      "partially": 8026,
      "convertable": 8027,
      "sunglasses": 8028,
      "RELIABLE": 8029,
      "RELIABIL": 8030,
      "particularly": 8031,
      "characteristic": 8032,
      "characteristics": 8033,
      "customize": 8034,
      "confirm": 8035,
      "confirmed": 8036,
      "Starbucks": 8037,
      "development": 8038,
      "thrilling": 8039,
      "cumbersome": 8040,
      "organized": 8041,
      "organizer": 8042,
      "550i": 8043,
      "Actually": 8044,
      "BOSE": 8045,
      "BRAND": 8046,
      "Class": 8047,
      "CONTR": 8048,
      "Denver": 8049,
      "Ergonom": 8050,
      "Electronics": 8051,
      "Economy": 8052,
      "FEE": 8053,
      "FREE": 8054,
      "GXE": 8055,
      "Glad": 8056,
      "Lincoln": 8057,
      "MILEAGE": 8058,
      "Midwest": 8059,
      "MONTHS": 8060,
      "October": 8061,
      "Pirelli": 8062,
      "Protege5": 8063,
      "QUIET": 8064,
      "SYSTEM": 8065,
      "Siri": 8066,
      "Styling": 8067,
      "Sensors": 8068,
      "Shelby": 8069,
      "Shopping": 8070,
      "Typical": 8071,
      "Touareg": 8072,
      "WELL": 8073,
      "Wheel": 8074,
      "Yeah": 8075,
      "YEARS": 8076,
      "bidder": 8077,
      "giddy": 8078,
      "grease": 8079,
      "hundreds": 8080,
      "jarring": 8081,
      "journalists": 8082,
      "license": 8083,
      "ragtop": 8084,
      "salt": 8085,
      "square": 8086,
      "involving": 8087,
      "reproduce": 8088,
      "stunning": 8089,
      "accelar": 8090,
      "accessible": 8091,
      "seamless": 8092,
      "cherry": 8093,
      "choosing": 8094,
      "demonst": 8095,
      "deflates": 8096,
      "deafening": 8097,
      "neighbors": 8098,
      "novelty": 8099,
      "anticip": 8100,
      "reservation": 8101,
      "ignore": 8102,
      "celica": 8103,
      "compatibility": 8104,
      "telephone": 8105,
      "crowded": 8106,
      "preformed": 8107,
      "preventative": 8108,
      "Initially": 8109,
      "distribution": 8110,
      "maintanence": 8111,
      "estimated": 8112,
      "parallel": 8113,
      "explode": 8114,
      "conversation": 8115,
      "brochure": 8116,
      "pampered": 8117,
      "technical": 8118,
      "flagship": 8119,
      "scrutin": 8120,
      "promptly": 8121,
      "Planning": 8122,
      "ENSION": 8123,
      "Christmas": 8124,
      "EVERYTHING": 8125,
      "Positives": 8126,
      "destroyed": 8127,
      "antiquated": 8128,
      "repeatedly": 8129,
      "LTDs": 8130,
      "brilliant": 8131,
      "shuddering": 8132,
      "professional": 8133,
      "Yokohamas": 8134,
      "Hopefully": 8135,
      "exhilarating": 8136,
      "Keyless": 8137,
      "Indiana": 8138,
      "0w20": 8139,
      "Area": 8140,
      "Country": 8141,
      "Climate": 8142,
      "Camaro": 8143,
      "Design": 8144,
      "Detroit": 8145,
      "Different": 8146,
      "Euro": 8147,
      "ECHO": 8148,
      "Family": 8149,
      "Friday": 8150,
      "Further": 8151,
      "Fully": 8152,
      "Failure": 8153,
      "FROM": 8154,
      "Given": 8155,
      "Guess": 8156,
      "Granted": 8157,
      "HVAC": 8158,
      "Hoping": 8159,
      "Holds": 8160,
      "Hatchback": 8161,
      "HORRIBLE": 8162,
      "Iowa": 8163,
      "Illinois": 8164,
      "Jetta": 8165,
      "Kardon": 8166,
      "Ltd": 8167,
      "Lemon": 8168,
      "Motor": 8169,
      "Massachusetts": 8170,
      "Mountain": 8171,
      "Miami": 8172,
      "Murano": 8173,
      "Ohio": 8174,
      "Options": 8175,
      "Potenza": 8176,
      "Pressure": 8177,
      "Pensacola": 8178,
      "Pontiac": 8179,
      "Period": 8180,
      "QX56": 8181,
      "Rugged": 8182,
      "Reverse": 8183,
      "Sentras": 8184,
      "Teddy": 8185,
      "Trips": 8186,
      "Trunk": 8187,
      "TUNDRA": 8188,
      "Usually": 8189,
      "Virginia": 8190,
      "Which": 8191,
      "blizzard": 8192,
      "crept": 8193,
      "false": 8194,
      "fotainment": 8195,
      "fooled": 8196,
      "fifth": 8197,
      "fashion": 8198,
      "glides": 8199,
      "housing": 8200,
      "horses": 8201,
      "history": 8202,
      "honeymoon": 8203,
      "jewel": 8204,
      "knees": 8205,
      "laugh": 8206,
      "mr2": 8207,
      "mouth": 8208,
      "massage": 8209,
      "nonsense": 8210,
      "pistons": 8211,
      "patched": 8212,
      "rural": 8213,
      "scheme": 8214,
      "seldom": 8215,
      "skeptical": 8216,
      "slopes": 8217,
      "ville": 8218,
      "yellow": 8219,
      "intrusive": 8220,
      "inspection": 8221,
      "inflate": 8222,
      "inlaws": 8223,
      "anchors": 8224,
      "errands": 8225,
      "reluctant": 8226,
      "resolved": 8227,
      "refinement": 8228,
      "requiring": 8229,
      "aspirated": 8230,
      "encumbered": 8231,
      "environment": 8232,
      "albeit": 8233,
      "alleged": 8234,
      "altitude": 8235,
      "beetle": 8236,
      "advanced": 8237,
      "adrenaline": 8238,
      "liquid": 8239,
      "millage": 8240,
      "deceiving": 8241,
      "depreci": 8242,
      "complicated": 8243,
      "exquisite": 8244,
      "exhili": 8245,
      "convience": 8246,
      "spongy": 8247,
      "website": 8248,
      "upwards": 8249,
      "frankly": 8250,
      "individ": 8251,
      "cannister": 8252,
      "auxiliary": 8253,
      "emissions": 8254,
      "ventilation": 8255,
      "polished": 8256,
      "symphony": 8257,
      "Infinity": 8258,
      "disproportionate": 8259,
      "warrenty": 8260,
      "fabulous": 8261,
      "faithful": 8262,
      "SUSPENSION": 8263,
      "dimming": 8264,
      "pristine": 8265,
      "automotive": 8266,
      "extremly": 8267,
      "blazer": 8268,
      "VEHICLE": 8269,
      "SENTRA": 8270,
      "volumes": 8271,
      "STRONG": 8272,
      "occupants": 8273,
      "Armanda": 8274,
      "Columbia": 8275,
      "furniture": 8276,
      "Minnesota": 8277,
      "volkswag": 8278,
      "ALWAYS": 8279,
      "Oklahoma": 8280,
      "effectiveness": 8281,
      "RELIABILITY": 8282
    },
    "merges": [
      [
        "t",
        "h"
      ],
      [
        "i",
        "n"
      ],
      [
        "a",
        "n"
      ],
      [
        "e",
        "r"
      ],
      [
        "th",
        "e"
      ],
      [
        "i",
        "s"
      ],
      [
        "o",
        "n"
      ],
      [
        "r",
        "e"
      ],
      [
        "l",
        "e"
      ],
      [
        "an",
        "d"
      ],
      [
        "a",
        "r"
      ],
      [
        "o",
        "r"
      ],
      [
        "a",
        "t"
      ],
      [
        "i",
        "t"
      ],
      [
        "v",
        "e"
      ],
      [
        "o",
        "u"
      ],
      [
        "a",
        "s"
      ],
      [
        "t",
        "o"
      ],
      [
        "in",
        "g"
      ],
      [
        "e",
        "d"
      ],
      [
        "e",
        "n"
      ],
      [
        "a",
        "l"
      ],
      [
        "s",
        "t"
      ],
      [
        "r",
        "i"
      ],
      [
        "h",
        "a"
      ],
      [
        "o",
        "m"
      ],
      [
        "v",
        "er"
      ],
      [
        "f",
        "or"
      ],
      [
        "o",
        "w"
      ],
      [
        "e",
        "l"
      ],
      [
        "o",
        "f"
      ],
      [
        "c",
        "ar"
      ],
      [
        "o",
        "t"
      ],
      [
        "h",
        "e"
      ],
      [
        "i",
        "c"
      ],
      [
        "e",
        "s"
      ],
      [
        "w",
        "i"
      ],
      [
        "l",
        "y"
      ],
      [
        "b",
        "e"
      ],
      [
        "a",
        "c"
      ],
      [
        "s",
        "e"
      ],
      [
        "g",
        "e"
      ],
      [
        "r",
        "o"
      ],
      [
        "g",
        "h"
      ],
      [
        "0",
        "0"
      ],
      [
        "a",
        "d"
      ],
      [
        "t",
        "i"
      ],
      [
        "wi",
        "th"
      ],
      [
        "b",
        "u"
      ],
      [
        "a",
        "b"
      ],
      [
        "t",
        "er"
      ],
      [
        "c",
        "h"
      ],
      [
        "l",
        "i"
      ],
      [
        "ha",
        "ve"
      ],
      [
        "m",
        "i"
      ],
      [
        "T",
        "he"
      ],
      [
        "d",
        "e"
      ],
      [
        "t",
        "r"
      ],
      [
        "m",
        "y"
      ],
      [
        "th",
        "is"
      ],
      [
        "d",
        "ri"
      ],
      [
        "c",
        "om"
      ],
      [
        "u",
        "n"
      ],
      [
        "o",
        "o"
      ],
      [
        "a",
        "y"
      ],
      [
        "k",
        "e"
      ],
      [
        "w",
        "h"
      ],
      [
        "l",
        "l"
      ],
      [
        "le",
        "s"
      ],
      [
        "m",
        "e"
      ],
      [
        "th",
        "at"
      ],
      [
        "l",
        "d"
      ],
      [
        "n",
        "e"
      ],
      [
        "s",
        "i"
      ],
      [
        "m",
        "o"
      ],
      [
        "bu",
        "t"
      ],
      [
        "ou",
        "t"
      ],
      [
        "w",
        "as"
      ],
      [
        "y",
        "ou"
      ],
      [
        "gh",
        "t"
      ],
      [
        "al",
        "l"
      ],
      [
        "s",
        "o"
      ],
      [
        "c",
        "e"
      ],
      [
        "a",
        "re"
      ],
      [
        "n",
        "ot"
      ],
      [
        "ver",
        "y"
      ],
      [
        "th",
        "er"
      ],
      [
        "e",
        "x"
      ],
      [
        "u",
        "r"
      ],
      [
        "f",
        "e"
      ],
      [
        "m",
        "p"
      ],
      [
        "ha",
        "d"
      ],
      [
        "on",
        "e"
      ],
      [
        "c",
        "on"
      ],
      [
        "l",
        "o"
      ],
      [
        "c",
        "k"
      ],
      [
        "s",
        "p"
      ],
      [
        ".",
        "."
      ],
      [
        "n",
        "o"
      ],
      [
        "ge",
        "t"
      ],
      [
        "h",
        "as"
      ],
      [
        "en",
        "t"
      ],
      [
        "m",
        "a"
      ],
      [
        "dri",
        "ve"
      ],
      [
        "i",
        "r"
      ],
      [
        "re",
        "at"
      ],
      [
        "s",
        "h"
      ],
      [
        "s",
        "u"
      ],
      [
        "p",
        "l"
      ],
      [
        "I",
        "t"
      ],
      [
        "T",
        "h"
      ],
      [
        "i",
        "d"
      ],
      [
        "b",
        "le"
      ],
      [
        "ow",
        "n"
      ],
      [
        "mi",
        "les"
      ],
      [
        "ab",
        "le"
      ],
      [
        "i",
        "l"
      ],
      [
        "p",
        "ro"
      ],
      [
        "d",
        "o"
      ],
      [
        "p",
        "er"
      ],
      [
        "e",
        "ar"
      ],
      [
        "ou",
        "ld"
      ],
      [
        "q",
        "u"
      ],
      [
        "a",
        "ge"
      ],
      [
        "ac",
        "k"
      ],
      [
        "g",
        "reat"
      ],
      [
        "i",
        "on"
      ],
      [
        "in",
        "e"
      ],
      [
        "w",
        "e"
      ],
      [
        "u",
        "p"
      ],
      [
        "a",
        "m"
      ],
      [
        "li",
        "ke"
      ],
      [
        "u",
        "st"
      ],
      [
        "u",
        "s"
      ],
      [
        "v",
        "ing"
      ],
      [
        "w",
        "ay"
      ],
      [
        "f",
        "r"
      ],
      [
        "i",
        "f"
      ],
      [
        "it",
        "y"
      ],
      [
        "tr",
        "u"
      ],
      [
        "y",
        "ear"
      ],
      [
        "p",
        "e"
      ],
      [
        "n",
        "ow"
      ],
      [
        "an",
        "t"
      ],
      [
        "al",
        "ly"
      ],
      [
        "u",
        "l"
      ],
      [
        "th",
        "ing"
      ],
      [
        "o",
        "y"
      ],
      [
        "ou",
        "n"
      ],
      [
        "om",
        "e"
      ],
      [
        "Th",
        "is"
      ],
      [
        "s",
        "m"
      ],
      [
        "re",
        "s"
      ],
      [
        "00",
        "0"
      ],
      [
        "h",
        "ic"
      ],
      [
        "p",
        "p"
      ],
      [
        "a",
        "in"
      ],
      [
        "t",
        "s"
      ],
      [
        "oo",
        "k"
      ],
      [
        "an",
        "y"
      ],
      [
        "ve",
        "hic"
      ],
      [
        "g",
        "o"
      ],
      [
        "in",
        "d"
      ],
      [
        "el",
        "l"
      ],
      [
        "i",
        "g"
      ],
      [
        "tru",
        "ck"
      ],
      [
        "ble",
        "m"
      ],
      [
        "oo",
        "d"
      ],
      [
        "c",
        "an"
      ],
      [
        "as",
        "t"
      ],
      [
        "pro",
        "blem"
      ],
      [
        "o",
        "ver"
      ],
      [
        "ou",
        "ght"
      ],
      [
        "er",
        "e"
      ],
      [
        "for",
        "t"
      ],
      [
        "se",
        "at"
      ],
      [
        "o",
        "ther"
      ],
      [
        "u",
        "t"
      ],
      [
        "a",
        "k"
      ],
      [
        "h",
        "i"
      ],
      [
        "ab",
        "out"
      ],
      [
        "ne",
        "w"
      ],
      [
        "en",
        "g"
      ],
      [
        "a",
        "u"
      ],
      [
        "th",
        "an"
      ],
      [
        "ow",
        "er"
      ],
      [
        "vehic",
        "le"
      ],
      [
        "l",
        "ook"
      ],
      [
        "en",
        "d"
      ],
      [
        "c",
        "t"
      ],
      [
        "e",
        "m"
      ],
      [
        "dri",
        "ving"
      ],
      [
        "ic",
        "e"
      ],
      [
        "s",
        "a"
      ],
      [
        "wh",
        "en"
      ],
      [
        "w",
        "or"
      ],
      [
        "on",
        "ly"
      ],
      [
        "ot",
        "a"
      ],
      [
        "lo",
        "ve"
      ],
      [
        "com",
        "fort"
      ],
      [
        "2",
        "00"
      ],
      [
        "T",
        "oy"
      ],
      [
        "i",
        "ll"
      ],
      [
        "oun",
        "d"
      ],
      [
        "mo",
        "re"
      ],
      [
        "pl",
        "ac"
      ],
      [
        "fr",
        "om"
      ],
      [
        "be",
        "en"
      ],
      [
        "g",
        "ood"
      ],
      [
        "o",
        "p"
      ],
      [
        "j",
        "ust"
      ],
      [
        "mi",
        "le"
      ],
      [
        "Toy",
        "ota"
      ],
      [
        "g",
        "as"
      ],
      [
        "wi",
        "ll"
      ],
      [
        "an",
        "ce"
      ],
      [
        "p",
        "ower"
      ],
      [
        "e",
        "t"
      ],
      [
        "at",
        "ion"
      ],
      [
        "2",
        "0"
      ],
      [
        "i",
        "or"
      ],
      [
        "b",
        "ack"
      ],
      [
        "ve",
        "n"
      ],
      [
        "year",
        "s"
      ],
      [
        "ti",
        "on"
      ],
      [
        "in",
        "ter"
      ],
      [
        "l",
        "u"
      ],
      [
        "on",
        "g"
      ],
      [
        "hi",
        "gh"
      ],
      [
        "re",
        "plac"
      ],
      [
        "at",
        "e"
      ],
      [
        "f",
        "ter"
      ],
      [
        "ro",
        "ad"
      ],
      [
        "de",
        "al"
      ],
      [
        "h",
        "and"
      ],
      [
        "d",
        "er"
      ],
      [
        "be",
        "t"
      ],
      [
        "mile",
        "age"
      ],
      [
        "t",
        "y"
      ],
      [
        "ar",
        "d"
      ],
      [
        "ou",
        "gh"
      ],
      [
        "a",
        "g"
      ],
      [
        "b",
        "r"
      ],
      [
        "w",
        "ould"
      ],
      [
        "in",
        "t"
      ],
      [
        "e",
        "ver"
      ],
      [
        "si",
        "on"
      ],
      [
        "s",
        "ome"
      ],
      [
        "c",
        "o"
      ],
      [
        "is",
        "s"
      ],
      [
        "eng",
        "ine"
      ],
      [
        "of",
        "f"
      ],
      [
        "m",
        "u"
      ],
      [
        "b",
        "ought"
      ],
      [
        "the",
        "y"
      ],
      [
        "ti",
        "me"
      ],
      [
        "c",
        "el"
      ],
      [
        "w",
        "ell"
      ],
      [
        "ou",
        "r"
      ],
      [
        "st",
        "ill"
      ],
      [
        "mo",
        "st"
      ],
      [
        "e",
        "very"
      ],
      [
        "com",
        "p"
      ],
      [
        "it",
        "s"
      ],
      [
        "ch",
        "as"
      ],
      [
        "t",
        "e"
      ],
      [
        "ri",
        "de"
      ],
      [
        "mp",
        "g"
      ],
      [
        "f",
        "un"
      ],
      [
        "t",
        "ing"
      ],
      [
        "ur",
        "chas"
      ],
      [
        "deal",
        "er"
      ],
      [
        "iss",
        "an"
      ],
      [
        "g",
        "ot"
      ],
      [
        "to",
        "o"
      ],
      [
        "bet",
        "ter"
      ],
      [
        "comfort",
        "able"
      ],
      [
        "mu",
        "ch"
      ],
      [
        "b",
        "o"
      ],
      [
        "ch",
        "an"
      ],
      [
        "f",
        "o"
      ],
      [
        "ne",
        "ed"
      ],
      [
        "el",
        "y"
      ],
      [
        "ir",
        "st"
      ],
      [
        "a",
        "ir"
      ],
      [
        "as",
        "s"
      ],
      [
        "si",
        "de"
      ],
      [
        "N",
        "issan"
      ],
      [
        "d",
        "es"
      ],
      [
        "t",
        "le"
      ],
      [
        "20",
        "1"
      ],
      [
        "ou",
        "s"
      ],
      [
        "p",
        "urchas"
      ],
      [
        "d",
        "ay"
      ],
      [
        "l",
        "it"
      ],
      [
        "a",
        "fter"
      ],
      [
        "bu",
        "y"
      ],
      [
        "wor",
        "k"
      ],
      [
        "for",
        "m"
      ],
      [
        "ic",
        "h"
      ],
      [
        "m",
        "on"
      ],
      [
        "ic",
        "k"
      ],
      [
        "f",
        "u"
      ],
      [
        "l",
        "ing"
      ],
      [
        "ar",
        "t"
      ],
      [
        "..",
        "."
      ],
      [
        "own",
        "ed"
      ],
      [
        "tr",
        "an"
      ],
      [
        "B",
        "M"
      ],
      [
        "le",
        "n"
      ],
      [
        "BM",
        "W"
      ],
      [
        "inter",
        "ior"
      ],
      [
        "re",
        "li"
      ],
      [
        "a",
        "p"
      ],
      [
        "li",
        "ght"
      ],
      [
        "b",
        "y"
      ],
      [
        "v",
        "i"
      ],
      [
        "fe",
        "el"
      ],
      [
        "problem",
        "s"
      ],
      [
        "ther",
        "e"
      ],
      [
        "e",
        "p"
      ],
      [
        ")",
        "."
      ],
      [
        "a",
        "v"
      ],
      [
        "wh",
        "ich"
      ],
      [
        "do",
        "es"
      ],
      [
        "W",
        "e"
      ],
      [
        "d",
        "id"
      ],
      [
        "sp",
        "e"
      ],
      [
        "p",
        "o"
      ],
      [
        "s",
        "y"
      ],
      [
        "t",
        "ri"
      ],
      [
        "e",
        "ven"
      ],
      [
        "er",
        "s"
      ],
      [
        "is",
        "e"
      ],
      [
        "!",
        "!"
      ],
      [
        "d",
        "own"
      ],
      [
        "f",
        "irst"
      ],
      [
        "M",
        "y"
      ],
      [
        "o",
        "ld"
      ],
      [
        "is",
        "su"
      ],
      [
        "ac",
        "t"
      ],
      [
        "ti",
        "res"
      ],
      [
        "f",
        "ar"
      ],
      [
        "l",
        "ot"
      ],
      [
        "m",
        "ent"
      ],
      [
        "f",
        "ul"
      ],
      [
        "seat",
        "s"
      ],
      [
        "p",
        "ri"
      ],
      [
        "c",
        "r"
      ],
      [
        "i",
        "ve"
      ],
      [
        "u",
        "e"
      ],
      [
        "re",
        "p"
      ],
      [
        "les",
        "s"
      ],
      [
        "i",
        "le"
      ],
      [
        "l",
        "ong"
      ],
      [
        "is",
        "sion"
      ],
      [
        "st",
        "em"
      ],
      [
        "c",
        "au"
      ],
      [
        "lit",
        "tle"
      ],
      [
        "p",
        "re"
      ],
      [
        "t",
        "w"
      ],
      [
        "or",
        "t"
      ],
      [
        "d",
        "on"
      ],
      [
        "ne",
        "ver"
      ],
      [
        "per",
        "form"
      ],
      [
        "sm",
        "ission"
      ],
      [
        "a",
        "ke"
      ],
      [
        "w",
        "ant"
      ],
      [
        "al",
        "ity"
      ],
      [
        "sy",
        "stem"
      ],
      [
        "r",
        "un"
      ],
      [
        "ad",
        "e"
      ],
      [
        "con",
        "t"
      ],
      [
        "cau",
        "se"
      ],
      [
        "be",
        "st"
      ],
      [
        "c",
        "ould"
      ],
      [
        "wh",
        "at"
      ],
      [
        "mon",
        "th"
      ],
      [
        "d",
        "el"
      ],
      [
        "i",
        "p"
      ],
      [
        "s",
        "er"
      ],
      [
        "c",
        "he"
      ],
      [
        "e",
        "as"
      ],
      [
        "re",
        "ar"
      ],
      [
        "us",
        "ed"
      ],
      [
        "r",
        "y"
      ],
      [
        "il",
        "ity"
      ],
      [
        "I",
        "n"
      ],
      [
        "t",
        "ur"
      ],
      [
        "ro",
        "om"
      ],
      [
        "d",
        "is"
      ],
      [
        "sm",
        "oo"
      ],
      [
        "high",
        "way"
      ],
      [
        "w",
        "he"
      ],
      [
        "car",
        "s"
      ],
      [
        "m",
        "an"
      ],
      [
        "u",
        "re"
      ],
      [
        "re",
        "ally"
      ],
      [
        "to",
        "p"
      ],
      [
        "al",
        "so"
      ],
      [
        "st",
        "e"
      ],
      [
        "tran",
        "smission"
      ],
      [
        "ig",
        "n"
      ],
      [
        "w",
        "ar"
      ],
      [
        "be",
        "cause"
      ],
      [
        "whe",
        "el"
      ],
      [
        "5",
        "0"
      ],
      [
        "A",
        "l"
      ],
      [
        "h",
        "ow"
      ],
      [
        "f",
        "a"
      ],
      [
        "f",
        "i"
      ],
      [
        "o",
        "il"
      ],
      [
        "or",
        "s"
      ],
      [
        "qu",
        "ality"
      ],
      [
        "S",
        "U"
      ],
      [
        "fu",
        "el"
      ],
      [
        "v",
        "al"
      ],
      [
        "re",
        "e"
      ],
      [
        "d",
        "i"
      ],
      [
        "re",
        "c"
      ],
      [
        "replac",
        "ed"
      ],
      [
        "tur",
        "n"
      ],
      [
        "3",
        "0"
      ],
      [
        "a",
        "pp"
      ],
      [
        "l",
        "ow"
      ],
      [
        "ti",
        "m"
      ],
      [
        "look",
        "s"
      ],
      [
        "smoo",
        "th"
      ],
      [
        "i",
        "en"
      ],
      [
        "l",
        "at"
      ],
      [
        "in",
        "k"
      ],
      [
        "SU",
        "V"
      ],
      [
        "i",
        "mp"
      ],
      [
        "r",
        "ad"
      ],
      [
        "in",
        "ce"
      ],
      [
        "cel",
        "er"
      ],
      [
        "er",
        "ing"
      ],
      [
        "tr",
        "a"
      ],
      [
        "mo",
        "del"
      ],
      [
        "you",
        "r"
      ],
      [
        "e",
        "w"
      ],
      [
        "w",
        "ere"
      ],
      [
        "ha",
        "pp"
      ],
      [
        "u",
        "m"
      ],
      [
        "u",
        "se"
      ],
      [
        "spe",
        "ed"
      ],
      [
        "a",
        "w"
      ],
      [
        "qu",
        "i"
      ],
      [
        "reli",
        "able"
      ],
      [
        "s",
        "ay"
      ],
      [
        "un",
        "der"
      ],
      [
        "com",
        "m"
      ],
      [
        "tri",
        "p"
      ],
      [
        "M",
        "P"
      ],
      [
        "p",
        "ut"
      ],
      [
        "on",
        "t"
      ],
      [
        "ro",
        "ve"
      ],
      [
        "f",
        "ind"
      ],
      [
        "le",
        "as"
      ],
      [
        "ar",
        "ound"
      ],
      [
        "ma",
        "int"
      ],
      [
        "w",
        "ind"
      ],
      [
        "con",
        "d"
      ],
      [
        "len",
        "t"
      ],
      [
        "m",
        "at"
      ],
      [
        "dri",
        "ver"
      ],
      [
        "sh",
        "ip"
      ],
      [
        "des",
        "ign"
      ],
      [
        "p",
        "r"
      ],
      [
        "r",
        "a"
      ],
      [
        "get",
        "ting"
      ],
      [
        "go",
        "ing"
      ],
      [
        "1",
        "0"
      ],
      [
        "s",
        "ed"
      ],
      [
        "s",
        "ince"
      ],
      [
        "an",
        "other"
      ],
      [
        "ac",
        "celer"
      ],
      [
        "p",
        "u"
      ],
      [
        "p",
        "ass"
      ],
      [
        "perform",
        "ance"
      ],
      [
        "I",
        "f"
      ],
      [
        "b",
        "el"
      ],
      [
        "purchas",
        "ed"
      ],
      [
        "f",
        "in"
      ],
      [
        "it",
        "ion"
      ],
      [
        "ri",
        "d"
      ],
      [
        "N",
        "o"
      ],
      [
        "W",
        "h"
      ],
      [
        "b",
        "ig"
      ],
      [
        "le",
        "d"
      ],
      [
        "st",
        "and"
      ],
      [
        "sp",
        "or"
      ],
      [
        "if",
        "f"
      ],
      [
        "ak",
        "es"
      ],
      [
        "e",
        "k"
      ],
      [
        "to",
        "w"
      ],
      [
        "fo",
        "re"
      ],
      [
        "tw",
        "o"
      ],
      [
        "n",
        "ice"
      ],
      [
        "ab",
        "ility"
      ],
      [
        "cel",
        "lent"
      ],
      [
        "rep",
        "air"
      ],
      [
        "month",
        "s"
      ],
      [
        "he",
        "ad"
      ],
      [
        "ro",
        "l"
      ],
      [
        "ex",
        "pe"
      ],
      [
        "hand",
        "ling"
      ],
      [
        "th",
        "ink"
      ],
      [
        "es",
        "s"
      ],
      [
        "si",
        "ve"
      ],
      [
        "is",
        "h"
      ],
      [
        "s",
        "ound"
      ],
      [
        "re",
        "ad"
      ],
      [
        "cont",
        "rol"
      ],
      [
        "expe",
        "ct"
      ],
      [
        "m",
        "any"
      ],
      [
        "no",
        "ise"
      ],
      [
        "in",
        "c"
      ],
      [
        "ri",
        "ght"
      ],
      [
        "MP",
        "G"
      ],
      [
        "l",
        "ast"
      ],
      [
        "r",
        "ant"
      ],
      [
        "the",
        "m"
      ],
      [
        "pri",
        "ce"
      ],
      [
        "se",
        "e"
      ],
      [
        "r",
        "at"
      ],
      [
        "ac",
        "h"
      ],
      [
        "fe",
        "ct"
      ],
      [
        "ste",
        "ering"
      ],
      [
        "b",
        "ad"
      ],
      [
        "h",
        "ard"
      ],
      [
        "is",
        "t"
      ],
      [
        "look",
        "ing"
      ],
      [
        "ag",
        "ain"
      ],
      [
        "vi",
        "ew"
      ],
      [
        "c",
        "a"
      ],
      [
        "d",
        "a"
      ],
      [
        "i",
        "m"
      ],
      [
        "we",
        "ek"
      ],
      [
        "fi",
        "x"
      ],
      [
        "f",
        "f"
      ],
      [
        "k",
        "now"
      ],
      [
        "n",
        "ing"
      ],
      [
        "st",
        "y"
      ],
      [
        "au",
        "to"
      ],
      [
        "war",
        "rant"
      ],
      [
        "th",
        "ough"
      ],
      [
        "way",
        "s"
      ],
      [
        "s",
        "now"
      ],
      [
        "it",
        "e"
      ],
      [
        "ex",
        "t"
      ],
      [
        "do",
        "or"
      ],
      [
        "am",
        "ry"
      ],
      [
        "fr",
        "ont"
      ],
      [
        "issu",
        "es"
      ],
      [
        "z",
        "e"
      ],
      [
        "st",
        "art"
      ],
      [
        "fe",
        "w"
      ],
      [
        "fe",
        "at"
      ],
      [
        "ma",
        "k"
      ],
      [
        "warrant",
        "y"
      ],
      [
        "L",
        "E"
      ],
      [
        "S",
        "o"
      ],
      [
        "te",
        "st"
      ],
      [
        "rad",
        "i"
      ],
      [
        "1",
        "9"
      ],
      [
        "c",
        "l"
      ],
      [
[...]
